t h
i n
e r
a n
th e
o n
r e
a t
e n
o r
s t
a l
e d
o u
in g
t o
i s
a r
o f
i t
e s
an d
a s
i c
l e
i on
o m
h e
en t
s e
i l
a c
b e
v e
l y
i d
r o
a d
f or
a m
th at
c h
o w
a y
w h
i m
i g
o l
v er
o t
u t
u n
e t
i th
u r
d e
i r
c e
at ion
c t
a re
a b
a g
t er
c on
T he
w ith
u s
l i
er s
t e
er e
o p
m o
c om
n e
w e
h a
l d
il l
s u
y ou
p e
w as
k e
al l
p l
ou t
at e
p ro
r i
u l
re s
m ent
l o
f r
a p
e x
ig h
a in
ou n
en d
t r
s h
on e
i f
b y
s o
h is
i st
ou r
n ot
ar t
ha ve
es s
it y
ou ld
p o
an t
e m
l l
th er
fr om
u m
th is
s a
f e
i ve
q u
g e
igh t
ac t
u st
p er
g o
or t
w or
a st
h as
o d
ac k
2 0
u p
d o
i es
al ly
b ut
om e
e ar
I n
g h
ar d
c l
m e
an y
c o
a k
c an
the y
e l
w ill
a u
sa id
p r
i e
in d
c i
g r
an s
wh o
p ort
ou gh
ic h
T h
am e
i v
ag e
id e
d er
the ir
o k
mo re
n ow
e v
0 0
ic e
a f
t im
on g
oun d
ou s
in e
e st
re d
u d
b l
n o
ion s
b o
ab out
s ome
b er
of f
at ed
h ad
y ear
c k
it s
d ay
I t
wh ich
f o
w ere
e p
ab le
w ould
i a
w ay
th ing
m an
as s
c r
a ke
en ce
li ke
u re
ver y
com p
o ther
ow n
in t
i z
ac h
be en
g et
a v
wor k
A n
x t
h er
ar y
ac e
o ver
ig n
c re
20 1
ne w
s p
it e
p art
W h
st r
i p
for m
u e
S t
d is
i re
a il
p res
m y
th an
i le
po s
op le
con t
th ere
is h
a w
t s
c ent
s er
tim e
p re
ic al
i al
al so
wh at
C h
the m
j ust
pl ay
W e
b r
H e
wh en
you r
re e
pe ople
f ir
c or
b le
ic k
f er
re n
p t
ation s
1 9
en s
in ter
t w
l ow
p ol
ct ion
as e
an ce
s ay
e f
in to
m on
in k
. ”
m er
ol d
t y
te xt
ve l
ar k
i an
or y
mo st
o b
an g
h ow
s pe
c oun
it ion
id ent
at t
b ack
p h
c au
k now
at es
or s
d u
ad e
am p
s he
r a
af ter
T his
o g
c ess
cau se
u bl
f ul
B ut
o se
fir st
, ”
h im
c ould
ver s
p p
c ur
fo re
m in
on ly
se l
| >
< |
end of
endof text
n ing
tw o
il d
be t
ro w
en c
r y
t ing
An d
at er
i ous
U n
m ed
re ad
- -
s y
. "
com m
un der
d es
d on
N e
wh ere
f in
d id
ad d
ic t
se e
b u
ag ain
r ight
u se
ev en
g u
T r
w ant
re g
s i
s c
be cause
at ing
is e
as on
com e
u al
. .
year s
ul t
v ed
ne ed
A s
ubl ic
j e
v ing
r ough
f l
c ol
1 0
h o
c all
ent s
re at
res s
ment s
d r
R e
, "
m any
d own
e very
us ed
the n
m ake
o s
lo ok
l and
ur n
tr y
in s
the se
ci al
in cl
u ch
d if
en er
cor d
a ir
le g
e ver
th ink
is s
be ing
he l
c er
ation al
it t
ar ch
v ie
D e
m ay
we ll
th ough
le ct
a th
e k
po int
re l
l ong
je ct
l ess
st ate
an k
th rough
ou p
um p
c ed
ch o
20 0
at ive
l ast
se t
as ed
sel f
) .
A mer
o re
Amer ic
ak ing
sh ould
it ed
Ne w
as h
u g
sh ow
le t
th ose
h igh
re m
it ies
m uch
pe ct
c le
im p
ur ing
an ge
v en
at ch
I f
Y ou
o y
t ain
go ver
c ar
ic s
do es
l es
F or
go ing
s s
w r
st art
gover n
fe ct
c es
t al
v is
f un
p ers
be fore
st and
as k
te am
l ed
al s
re port
v es
wh ile
p ut
in ce
m ade
vie w
con d
s ur
S o
su ch
wor ld
p on
A l
m a
if ic
su p
de c
g ame
il y
C on
t urn
l ar
m s
le ad
go od
ing s
) ,
an n
su b
pro du
st ud
c he
we ek
t ri
The y
con s
ul ar
il ity
w ard
st em
y s
l ine
g an
S e
u ally
ch ar
A r
again st
i ed
o c
incl ud
te st
r un
i o
t on
st ill
Th ere
h ere
l aw
hel p
F r
ap p
f act
ill ion
00 0
t ake
ow er
we en
n er
he ad
. <|
say s
ol og
dif fer
re al
l a
C om
c ut
u b
s ign
n um
off ic
Th at
c lo
is m
qu est
v al
L e
N o
te m
bet ween
ser v
s ame
govern ment
ol low
I s
s m
ist s
tr ans
en g
h and
B e
c our
w ar
s on
c ap
sy stem
am es
Tr ump
B r
ar ound
bo ok
vel op
th ree
pers on
s ide
O n
u res
in st
us s
a x
f am
gr oup
ter s
sup port
f f
p ublic
pro v
w om
m em
v i
t en
f ound
ou se
re ally
g ot
ve st
m ark
p ri
a ve
su re
1 2
pres s
way s
per i
l ot
su l
ha pp
de f
U S
pl ace
ge st
v ol
1 5
f il
J o
mon th
d et
bo th
b ig
li fe
is su
. [
f ind
p ower
ire ct
c al
en se
C l
to p
are n
ce pt
ic es
m iss
de velop
al th
o st
res pon
to o
sh ip
ag es
pol it
n et
d uring
al e
f t
p ar
n g
g ener
f ollow
ap pe
to ld
li st
H ow
be li
d s
1 1
se ason
are d
p ass
ic ally
c ame
in es
ex pl
str u
fe w
b re
s ince
re st
us ing
id er
l ight
cont in
cord ing
ak es
b ers
b us
a im
A d
v ot
a z
1 8
r is
i vers
n ational
A t
f ar
h ome
at a
all ow
ar s
3 0
te ll
u es
some thing
im e
comm un
v ent
ut ion
po st
od y
g iv
b lo
c are
an other
re le
s ol
cle ar
in vest
or der
a h
ch ild
e ach
op en
cho ol
differ ent
un t
iz ed
b it
c amp
k ill
read y
Wh en
ren t
thing s
gr am
se arch
P ro
us h
se cond
g y
cont ro
ex t
m ight
pos si
call ed
ant s
ne ver
be st
co ver
S h
at ter
ro ss
Wh at
ne xt
in ess
iz e
p ay
mo ve
t ed
d i
d ist
ie ld
re qu
s ing
n ess
ch ange
bu ild
g er
p or
includ ing
d irect
h um
l s
se em
p s
i er
fe el
op er
itt le
le vel
per cent
it al
b all
m illion
S he
in form
5 0
l im
in cre
p op
h ard
con om
ap pro
pl an
m ar
inter est
im port
res ident
o od
i red
i x
re sul
w on
with out
o th
num ber
pres ent
k ing
m en
e le
c ase
g reat
su m
ate ly
so ci
f our
b ro
R ep
te ch
coun try
pro ble
c y
am a
d ri
M ar
Americ an
one y
l ing
et s
part ic
on s
T o
m il
bet ter
pr om
ab ly
1 6
c ri
ri end
ish ed
u ro
w in
re cent
s it
le ft
l ittle
ke ep
cl ass
att ack
m ain
r al
u ck
pr of
A f
h ist
at ure
f ic
tr a
enc y
it ing
1 4
w it
i b
ef fect
f ree
j or
es e
or gan
cl aim
n or
d en
in a
d ata
did n
O b
e conom
g row
pro gram
m et
de p
g re
ch ang
b ody
on t
_ _
or d
et y
n ed
f riend
1 3
s chool
a ther
ab ility
ke y
b ased
v ious
ne ar
pol ice
ri st
R o
P r
at ic
k s
e as
re t
ex pect
ion al
in al
C o
spe c
re f
th or
comp any
pro cess
N or
at s
re ason
er n
1 7
cur rent
comp le
p ur
O ne
h n
n ight
at or
pres ident
pl oy
h old
sm all
end ing
wom en
C an
id ed
a way
act ion
com ing
re ce
Un ited
v ar
l ater
ap h
min ist
v ir
c ity
offic ial
end ed
c u
b al
wh y
r ation
bus iness
f ace
iv es
al ready
st ory
m oney
mo cr
r ic
inform ation
or k
ad v
he alth
A ll
c a
u de
tech n
un d
m aking
w he
on es
al ways
des ign
ex peri
se ver
C ol
im es
s imp
G r
M r
ag o
is ed
2 5
ut e
e lect
ard s
ma jor
B l
ent er
ivers ity
j ob
h op
cons ider
com es
for t
p ast
a ign
pro ject
P l
O r
i k
day s
h al
b ed
Jo hn
g ed
olog y
qu e
co st
G o
ain s
su c
amp le
19 9
m ust
f ac
M o
C ar
k ind
un ch
import ant
lar ge
b or
know n
st e
ed it
pl ic
t ax
ou th
qu al
.. .
happ en
ur al
does n
new s
work ing
n ame
ac y
g in
le ast
pos ition
l ate
possi ble
M ay
W ith
ain ed
camp aign
s k
fam ily
c as
id es
Rep ublic
en ough
I S
me an
w ater
is ion
re cord
f ield
like ly
de l
ne y
ri but
de al
s ite
v ide
pol ic
ex p
sh o
ur y
L i
e y
cur ity
hum an
polit ical
form er
st er
t ar
le y
in c
E x
M c
re search
unt il
cer tain
p ot
ed er
pos ed
p le
S y
le ar
i ans
enc es
se x
E uro
I m
to ok
gr ound
r or
ir d
of ten
P resident
-- --
mark et
s im
pro te
In d
s ci
ro om
st op
n am
g ive
act ually
D on
ful l
j o
ain ing
b ar
be come
E R
tr act
m or
i ble
n al
u c
Af ter
in ed
ear ly
h our
tim es
ac cording
re turn
r u
g ames
M on
A c
P h
R uss
st re
w ent
M an
do ing
n on
med ia
In ter
g en
a id
se en
P ol
S te
cr it
gr aph
su g
b en
ar ing
char ac
so cial
child ren
iz ation
ev ent
ha ving
t t
f ive
2 4
S p
ic le
ut ure
un e
y ing
cour se
play ers
e ve
st it
W or
ith er
to day
suc cess
whe ther
produ ct
m id
au thor
w er
stru ct
b as
mil it
Euro pe
m ber
N ot
ough t
f ight
coun t
sever al
/ /
em ploy
A T
quest ion
act iv
201 6
for ce
Ob ama
ens ive
me et
Y ork
s ent
v il
id ence
hal f
clo se
mem bers
St ate
ak en
ex ample
or ies
al ong
d one
1 00
c ast
off er
ent ial
r an
pri v
ag ed
u ary
ot s
in vol
I N
vi ol
fun d
sh ort
St ates
4 0
under stand
av ail
lo cal
u red
af f
tr ad
p ed
on ce
w atch
month s
C oun
l er
t ion
R E
with in
you ng
ask ed
f ig
r on
How ever
Ch rist
am ong
B o
W est
con cer
s our
il ar
f uture
or ig
i ent
invest ig
Wh ile
F e
E n
ge ther
y et
pl ac
m us
h ouse
ver t
giv en
S en
m and
though t
f ail
proble m
ac c
me ans
if ied
ag ue
De mocr
201 5
D r
issu e
we b
commun ity
pro b
H ouse
p at
ul ation
g ress
leg al
ac ross
M y
au gh
part y
report ed
it ive
s l
iv id
m it
w al
vide o
an e
sug gest
M in
st ep
m akes
d ro
g l
get ting
at ors
i ally
i um
h y
contro l
dep end
s po
str ong
M ic
oth ers
T e
Un iversity
eder al
des cri
201 4
to gether
on y
dis c
ann oun
beli eve
M e
o to
is ing
A N
re ach
is on
6 0
lo ve
n es
f all
D o
avail able
al i
h ar
g un
S ome
o ve
ind ust
ist er
b i
iv ed
de ath
partic ular
2 2
de b
ing ton
it er
h ind
pre t
fo ot
W ar
li ve
Americ a
fr ont
ur ther
start ed
look ing
G er
fo c
ast er
fe at
an al
ac cess
m om
m ing
. ,
ser ies
J u
n s
k es
N ow
comple te
hist ory
h it
on d
de v
follow ing
al most
h ip
B ar
sel ves
b ur
Can ad
m ind
pr act
b ad
S er
se curity
g n
H ar
try ing
J ust
w a
Th ese
en e
af t
miss ion
ce ll
m al
us es
an ces
O N
to m
ide a
is n
8 0
si x
f ire
ail s
in ation
add ed
f av
comp et
are a
r ul
r ound
comp an
lo c
B y
con ne
play er
2 3
to w
experi ence
t aken
it ions
S un
al d
pro per
cour t
R es
tal k
E ng
p ick
ust om
Nor th
c op
any thing
sp ace
s of
int on
c ult
ition al
ind ivid
fer ence
bl ack
su pp
s al
G e
p ubl
ful ly
ap er
th reat
ar gu
bo ard
t aking
w w
ph oto
sim ilar
b ill
H is
say ing
om et
Is ra
milit ary
im m
D ep
ci ally
u ge
want ed
D av
e cut
am s
ent ire
bre ak
be hind
blo ck
de fin
G u
fil m
d ate
ro ad
Wor ld
im pro
fo od
201 3
ex ist
m ess
ra ther
m ult
col le
N ational
p en
disc uss
2 1
a ver
w ide
cre t
point s
tri es
ot t
sing le
stud y
Cl inton
Br it
lo ad
individ ual
g es
re ed
wom an
fl u
work s
polic y
spe cial
r ad
br ing
b and
im ate
qu ick
C ity
ro ll
A ust
P e
pre vious
p aren
st ri
che ck
b ank
de st
li er
un i
v o
some one
ch ed
ul l
E d
vers ion
s cre
* *
st y
A R
h tt
g lo
P art
A S
d am
prob ably
ag ree
W ash
2 7
s us
at tem
201 2
s en
el se
no thing
ph one
bo x
com b
B C
serv ice
ward s
d ue
d om
u ff
se ll
201 7
te e
an c
S c
m ass
cre ate
e qu
sign ific
id s
de cl
vir on
E S
: //
prote ct
J an
tar get
right s
. )
ex per
ent ion
do cu
th ird
an a
art ment
id ay
n at
ben ef
ro te
e ither
li es
play ed
how ever
con f
S outh
Wash ington
sh are
ho st
issu es
W il
r ate
dec ision
d ed
2 6
ro le
ang er
me as
F l
h am
l ish
w rote
b an
ch all
in it
st at
am oun
com mon
att le
resul t
s ound
en n
f urther
fin al
build ing
be gin
st ates
re present
g ing
ut es
d ou
tr ue
t it
2 8
end er
am er
Ch ina
rele ased
inst e
c and
every thing
wor d
compan ies
M ed
wh ite
c ustom
dr aw
lead ers
P er
d le
who le
for d
seem s
develop ment
st ar
New s
m atter
charac ter
f ederal
ty pe
if e
an im
M us
a i
p ie
ter m
tr ack
p ite
S ep
P ho
itt ed
state ment
spec ific
l am
ive ly
ex ecut
vis ion
re me
st o
m atch
u ation
gener al
person al
official s
a ul
ab ove
m ag
play ing
ant i
j ud
be gan
T wit
appe ar
m ot
out side
run ning
sa w
ad minist
stud ents
tow n
off ice
hour s
add ress
la unch
ie f
a ut
as ing
ur s
l ink
ent ly
le ment
ct or
signific ant
prov ide
him self
7 0
viron ment
l ab
contin ue
F ace
de li
for ward
2 9
se qu
dr ug
it self
sh ot
lo ck
m is
val ue
in j
be came
them selves
C or
port s
ty p
he ld
wor th
coun tries
w ind
u el
i or
Wh ite
simp ly
T V
chang es
ri ed
p ack
prof ess
if y
l t
was n
Twit ter
dif fic
T H
es pe
need ed
ele ction
wor ds
J e
inter view
it ch
group s
ev idence
= =
h or
po se
ang u
v ic
re co
espe cially
rele ase
ener gy
A pp
co de
ag er
and s
ct ions
fun ction
A m
expect ed
contin u
mus ic
need s
A M
every one
cr im
rel ation
med i
og le
show s
ad es
be low
tr u
incl ude
lo g
appro ach
qu ar
E m
un ity
pret ty
b illion
st ay
red u
end s
vot e
su per
il t
qu ite
A C
t reat
h om
I I
det er
our nal
th od
p ush
P ar
pt ion
s ense
h ol
comm it
ne cess
indust ry
r ac
g ir
econom ic
Face book
d iv
A P
b ase
ed uc
M arch
cand id
ac cept
n ation
lo st
z e
al leg
str ate
H er
qual ity
inste ad
sc ri
M ore
c ir
A b
low er
id ing
ur ch
s ess
H ere
O c
p ain
c red
re view
c it
A ug
to tal
beli ev
S u
pl es
res pect
R ed
201 1
ar r
var i
for man
so on
co re
week s
rel ig
A L
ph ys
ser ious
E ar
S an
in o
L o
Go ogle
sp ir
recent ly
peri od
Q u
op port
s w
am ent
Ac cording
j oy
ou d
ag ing
n ers
pop ular
ch an
O f
D es
Republic an
long er
J une
19 8
on line
c il
ob ject
mo ved
sho ot
s ed
3 5
wr ong
fav or
ris k
ter ror
Pho to
Sy ri
mom ent
__ __
un g
Dep artment
A pr
du ct
fin an
p age
pot ential
l in
pr im
o x
go al
t ro
C ong
high er
de ad
G re
r up
F ir
G od
art icle
O ff
f lo
act ions
P al
Ju ly
com pl
row n
friend s
A ct
serv ices
re w
sur pr
fam il
g as
comp ut
S m
ber t
kill ed
de mand
p ing
H ill
ex press
ap plic
t ou
s old
em ber
cont ent
resul ts
con tract
E ven
v ia
sci ent
s ha
c oup
p an
cre ated
ac count
attem pt
he art
201 0
O R
diffic ult
Aust ral
pro test
O S
l angu
Cong ress
sour ce
te ach
min utes
Ch ar
mo der
eas y
priv ate
any one
re fer
ho od
cover ed
per forman
com ment
techn ology
il ities
le x
en vironment
ug g
ar m
re ve
Dav id
E N
S at
ear lier
rece ived
om b
op t
ot e
ha ps
spe ak
Fr iday
f ast
p red
Americ ans
ap an
Apr il
Fir st
f air
announ ced
er y
co ach
C our
ow s
fir m
amoun t
est ab
C r
k en
i j
get s
S pe
proble ms
us ers
incre ase
can not
Russ ia
cont ribut
imp act
it es
al ter
orig inal
respon si
cas es
m ater
4 5
quest ions
invol ved
ci vil
f ill
n a
J apan
cl ub
hop e
he av
P ost
aver age
Don ald
P aul
omet imes
int ro
ver se
E ast
T ues
v ict
l ines
respon se
near ly
Ge or
coun ter
M i
w ish
ex act
li ving
spe ct
work ed
bro ad
itt en
pr int
Mon day
work ers
p ath
Isra el
glo bal
Tues day
le ave
I C
A g
publ ished
de ep
c li
ly ing
relation ship
Is lam
o il
St re
ins ide
ans wer
i res
is l
ne l
v an
as soci
S ch
f em
l ack
inter national
turn ed
mem ber
G et
f ans
d ig
p et
em er
reg ard
s ort
pr ice
ar rest
re quest
W ed
st aff
in te
col lect
sub ject
b on
direct or
se m
s qu
report s
dec ided
im medi
we ap
rel ated
ch ance
t akes
cap ital
ther n
p ict
r ing
ic a
em ail
ter ms
iz ing
Ph il
E l
li ed
ex c
et er
t re
produ ction
tem ber
ind ic
finan cial
bu ilt
tell ig
mo del
mo ther
scre en
ro ck
w ood
s ize
on to
9 0
simp le
current ly
n ia
Jan uary
Sep tember
au d
bu y
in flu
r ace
No ve
we st
per form
go es
h ot
g ave
au di
reco gn
Bl ack
fore ign
ar ri
f fer
I T
D is
f ather
mo de
who se
requ ire
t or
A fr
) ;
to ol
av ing
d ol
it or
mater ial
eng ine
sty le
Nove mber
cl us
Th en
r ain
happen ed
me thod
Europe an
l ay
lo ss
Fr om
li ves
at ives
te le
M ark
n u
" .
Aug ust
ev ents
intro du
Th urs
Wed nes
to ber
sit uation
performan ce
Canad a
partic ip
E D
vert ise
pl ans
P o
av o
spe ed
gr ad
h uge
tr ade
fe lt
iv al
Cour t
C ali
9 9
team s
Wednes day
he ard
meet ing
U K
b ot
Oc tober
possi b
c ard
Russ ian
wal k
Thurs day
allow ed
we l
c up
I D
fe ll
care er
O ur
se ven
im age
are as
st ant
af fect
n y
re pe
" ,
if t
Cali for
Brit ish
E very
th ous
ist ic
Wh y
coup le
r id
ment ion
e ch
3 3
let ter
P ark
num bers
in v
b ud
vic tim
stru ction
sa fe
w o
impro ve
cor por
---- ----
quick ly
al ed
administ ration
conne ct
ail y
ers on
ha vi
se cret
us er
L et
We ll
h i
Sun day
k y
W al
g s
as es
se par
at ory
for ces
tra vel
r ange
wr itten
F in
docu ment
is es
St ar
C ap
d y
sp ent
econom y
lead ing
reg ular
U p
oc cur
en joy
A D
con duct
O P
web site
H ol
Califor nia
htt p
per fect
de mon
mor ning
an i
c ul
p aid
t able
De ce
ne igh
olog ical
includ ed
move ment
19 7
respon d
k new
op s
want s
pr ison
Dece mber
T ex
re ct
200 8
3 2
” .
ha el
ve h
M a
leg isl
grow th
pro gress
su it
K ing
pre vent
pop ulation
ic o
tri ed
5 00
ol ution
L on
Mus lim
look s
foc us
im ent
net work
s ong
we ight
var ious
b ul
mo b
t our
age ment
nat ural
an ch
? ”
lead er
200 9
we et
K ore
am ing
tr aining
sy m
vis it
Ind ia
] [
read ing
att ention
ce ed
langu age
be havi
in depend
lab or
cont act
3 1
ex am
br ought
S up
er ing
c ing
Sen ate
C ent
Pl ay
m ach
st or
nam ed
G ener
t ur
up on
system s
cit iz
chang ed
s low
s ens
led ge
Stre et
R om
giv ing
T imes
T ur
a pe
se cut
ste ad
B en
rul es
Re ad
und red
paren ts
co in
I ran
sex ual
y ond
p aper
k er
M ost
part s
i ents
s il
f it
ar ily
do or
3 6
mo ving
C enter
Pol ice
tal king
av es
sci ence
commun ic
t ies
late st
cr aft
mult ip
Mic hael
b ir
K e
li ber
str ugg
pl at
S and
f an
con serv
ach ie
ank s
O h
feat ures
ord in
P at
f ix
s n
consider ed
Part y
lear n
form s
Sat ur
ay s
plac ed
S w
cent er
def ense
med ical
ict ion
S T
p ark
he ar
C he
cr u
imm ig
I ra
F C
ro y
quar ter
employ e
ext reme
Coun ty
hand s
add ition
level s
rem ember
m ill
f a
reg ul
pri or
stit ution
act ive
investig ation
cons ist
L u
de part
look ed
s at
ex cept
ous ly
crit ic
f ile
wr iting
inst all
ic les
Lon don
M or
call s
Ira q
tellig ence
w ise
incre asing
m ap
j ournal
ch ief
anal ys
F L
su ffer
inc ident
wr ite
gu y
moder n
Satur day
mess age
z z
b ol
p ic
viol ence
r ict
w all
L ab
c ross
be l
po or
res our
particular ly
dol lar
m ak
job s
m ist
O ver
3 4
tw are
major ity
cl imate
complete ly
spe ech
enc ed
Pe ople
us ually
spo kes
hist or
S ince
M any
m ine
A ir
ens ion
claim s
J ames
V al
a ur
ef fort
z on
b ing
al one
pie ce
des pite
car ry
ren ch
Fe br
interest ing
B ro
attack s
r ap
Febr uary
ke pt
ob vious
sur ve
mid dle
p ts
U N
s mo
pp ed
s pr
m ur
sof t
s es
big gest
amp ion
al though
e ight
it em
B er
Wil li
n ative
not e
s ometimes
grow ing
set t
h ous
p ul
opport unity
soci ety
h undred
L ast
y e
x im
requ ired
ic an
reed om
lim ited
ann ed
bor n
descri bed
pract ice
st uff
3 7
Republic ans
ass ist
J ack
ser ved
ent ially
sp ot
product s
d anger
p sy
fig ure
exact ly
book s
B I
ar ies
M P
N et
rem ain
st ore
Tex as
start ing
think ing
certain ly
cent ury
mo vie
sum mer
bo y
cr y
st ories
S tr
won der
st age
vertise ment
cult ure
continu ed
3 8
sur v
ll ed
deli ver
for ced
necess ary
ines e
offic ers
ex tra
r ich
en ing
in ci
fin ally
B ill
R ich
c amer
det ails
se lect
for ts
Le ague
prov ided
dam age
Democr atic
th us
z er
ri es
tou ch
T or
reg ion
l ic
educ ation
v ice
Ch inese
com ments
stand ard
law s
sp ital
in come
ut ions
op tion
c row
s le
M art
ist an
ww w
show ed
rem ains
Im age
App le
en ed
B el
h ur
g one
happ y
per haps
m ic
cost s
appe ared
str a
li e
19 6
sa f
er t
o de
r it
chall eng
sc ene
m at
4 8
cor rect
ce le
pur ch
ne g
im ag
w ife
i et
cho ice
I P
main tain
aren t
D ay
multip le
l ap
effect s
C E
ap point
Be cause
imp lement
Ind ian
cr is
jo in
b es
en ge
B u
d ied
pass ed
C O
p air
ific ation
n om
br ain
z a
would n
Li ke
gir l
id a
incre ased
t in
Gre en
H igh
ag on
ight s
se ts
ab les
vot ers
um b
H o
cap t
real ity
ef forts
th row
k ids
be yond
claim ed
design ed
ish ing
.. ..
mean ing
cle an
ep is
foot ball
tit le
A u
stud ent
em p
t ic
id ge
direct ly
gu ys
cent ral
( @
to wards
blo od
dri ve
4 4
re li
in de
stand ing
appe ars
Al though
g ar
includ es
Democr ats
could n
T od
E T
saf ety
s kill
W ind
comple x
cele br
immedi ately
S ci
char ge
r ates
through out
As soci
T om
add itional
ag ency
le ague
re comm
Min ister
con sum
pl ant
An ge
op in
sof tware
G over
a head
ren g
C ha
rel ative
pres sure
Su per
b attle
Re g
B re
E C
7 5
E U
H am
P S
to ward
ant ic
deb ate
w are
may be
thous ands
fe ed
relig ious
sus pect
M ac
Eng lish
augh ter
4 9
offic er
adv ant
bud get
res h
col or
ain t
comm and
stre am
begin ning
b um
o v
dist ribut
f low
lar gest
D ef
F rench
proper ty
sh op
if f
cop y
comput er
rece ive
organ ization
uni que
est im
sit es
g ender
el s
nor mal
nu clear
analys is
Geor ge
h ab
ad em
l iter
i ers
pos itive
le ase
b ri
op e
dev ice
3 9
u k
tr ust
ven ue
alleg ed
m itted
P M
d ark
help ed
5 5
blo g
sign ed
cond itions
set ting
M ex
ate ver
str ict
Sm ith
ber g
fail ed
vent ion
er a
s cr
own ers
n ature
enc our
s ched
sto ck
i ver
Y es
il es
pre p
comp ared
power ful
M id
my self
te en
enc ies
inst it
he st
ment al
se ction
P C
reason s
con ference
colle ge
differ ence
Ger man
O T
Th om
D uring
ey es
ins ur
Gener al
m ix
? "
charac ters
f ol
fe ar
ie w
) :
sh own
ch air
her o
sy n
f requ
success ful
O ther
Christ ian
allow s
se a
al y
plac es
Syri a
con fir
M er
th ers
Tr ans
phys ical
S al
stit ute
st ic
ey e
ac qu
be at
sol ute
li f
orig in
sp ending
president ial
candid ate
st reng
T wo
pe ace
cr ime
J er
treat ment
ul tim
Inter national
Y our
fe ature
co ol
w ing
develop ed
B ay
execut ive
Ad vertisement
Austral ia
con vers
as y
an ced
anal y
up d
ear ch
con fl
b ound
pol l
avo id
coun ts
n ames
un k
r ank
school s
d ie
G old
oper ation
f ine
n ice
polit ics
pr inci
event ually
will ing
u fact
dr ink
st on
Ear th
follow ed
lo se
S chool
pre m
me ant
sm art
prom ot
c ise
M ag
crim inal
ct ure
ast ic
Ar ab
t a
eas ily
pro pos
tru th
in no
Ger many
200 7
over all
k ick
ar i
det ail
ast e
Ad d
4 7
giv es
c at
famil ies
st ation
as sa
cred it
im press
deter min
r ise
A lex
your self
M al
A no
con tr
weap ons
min im
I A
u x
ri f
h on
L aw
Al so
in telligence
sc ale
om en
dis play
land s
sen ior
fight ing
inte gr
ru le
activ ity
Ar t
Un ion
ide as
C al
Fl or
L a
t ask
cris is
R ev
Ano ther
sal es
F ollow
mur der
e th
e ase
stat us
iss ion
be aut
T er
gre en
sa ve
dec ades
al ing
ic ed
s end
fort un
R ob
Sc ott
4 6
m un
C H
c ities
S A
s ou
dou b
sess ion
br and
le ction
custom ers
b ab
p i
benef its
com mer
ad o
de mocr
project s
se c
con cept
app arent
Hill ary
exp and
Coun cil
fund ing
au tom
St ud
app ed
not ed
high ly
com fort
Inter net
call ing
psy ch
man ager
go als
stra ight
chall enge
individual s
V ir
b omb
meas ure
contin ues
T y
c um
min or
wa it
previous ly
clear ly
vil le
An y
ate g
bir th
R y
ll ing
em ot
aw are
s co
ch urch
sc en
iv ity
fe et
lar ger
prim ary
know ledge
see ing
add ing
ite ly
or g
ser ve
win ning
resour ces
w s
S ub
en em
gre ater
B ig
S am
vo ice
m oun
P ress
gr and
seem ed
G l
On ce
A re
ph en
program s
stud ies
favor ite
S ha
ri age
agree ment
S im
st ick
M il
r are
man ufact
P R
fem ale
Se e
opt ions
pred ict
shoot ing
clo sed
reach ed
Wh o
B it
et ro
u be
vir t
trad itional
ca used
is ions
estab lish
Ch ic
as c
ab solute
dro p
I L
t ick
demon str
re vol
al ity
Eng land
sour ces
crit ical
K en
Mic ro
got i
know s
st ood
c atch
b order
A A
sh ut
b s
supp or
ref lect
C N
r am
y n
produ ced
g old
j ump
P ort
sp end
d re
char ges
a e
Flor ida
ot a
Mi ke
cre ating
organ iz
al bum
iv ing
f reedom
s or
He alth
ra ised
IN G
d a
Chic ago
C ur
most ly
fr ame
se y
B A
m ail
L ou
eng th
wit ch
bas ic
ent y
research ers
tr ou
fe e
sup posed
in ated
ed ge
employe es
po ol
pr ices
do g
E L
f at
ask ing
” ,
typ es
Un der
r ating
post ed
op h
Fr ance
P A
Th ose
ne goti
6 5
ord ers
k ed
en sure
minist er
polic ies
et c
happ ens
re por
ho spital
ef fic
G B
ha ven
produ ce
In stead
r ant
me chan
stre et
concer ns
us ion
we alth
f uel
cl ud
ro id
val ues
pat ients
behavi or
ar ms
act ual
il ed
u ana
we ak
en force
D el
W all
Te ch
responsi ble
O ut
car s
author ities
neigh bor
G ame
tem per
v s
Tod ay
applic ation
le aving
6 4
M L
f al
mob ile
im ages
as su
mo d
B ush
H um
appro pri
offer ed
Pal est
. ’
er ve
plat form
d ire
Com mit
P ri
ag reed
Se cret
ig hest
N A
ij uana
s ad
mass ive
t end
pict ure
res ist
TH E
pro secut
reve aled
week end
i ar
op pon
citiz ens
wh atever
4 2
if ul
confir med
M O
West ern
M ad
record s
. '
g i
le ts
tr ain
ad vis
jud ge
open ing
M ill
advant age
e ct
Ch ris
bl ue
p atter
heav y
lim it
F ox
B S
sol ution
lear ned
effect ive
part ies
strate gy
believ ed
s un
bri ef
Fr anc
e li
cho ose
the s
200 6
run s
John son
m ir
co al
in fr
s light
loc ation
d aily
htt ps
cur ren
P re
independ ent
dev ices
S to
b od
We b
feel ing
D irect
Just ice
law y
wh om
h ighest
B ur
arrest ed
Wind ows
interest ed
tri al
open ed
prof it
pre ci
benef it
prov ides
r ants
Off ice
s an
d ing
v ill
ad s
g ers
Se curity
cond ition
dig ital
at tract
D ist
tell ing
oper ations
re place
influ ence
3 00
Sand ers
lear ning
off ers
support ed
f ant
char ged
L os
Franc is
ar ian
Res earch
def end
p al
show ing
understand ing
am az
tem por
m ig
op position
Com mission
li ament
elect ric
od es
P lease
p un
Islam ic
mem ory
camer a
man agement
resident s
pre fer
Commit tee
gener ation
ac cur
N FL
B rown
exist ing
am i
m as
equ ip
g a
p itch
o red
ro b
B oth
ef f
view s
t ack
invest ment
T O
beli ef
deb t
just ice
in ner
M S
adv oc
C up
v in
ser ver
gu ard
expl ained
defin itely
Kore a
ch ain
er r
dollar s
Gover n
it ter
so le
sho ck
T ime
U k
m ale
cl ick
associ ated
the ory
W ill
con struction
dou ble
M A
ri an
g ather
wor se
L in
D A
B ank
af fic
at o
20 00
init ial
form ation
ing ly
f are
M ur
s ch
gener ally
dri ving
bl ed
i to
tele vision
mil es
mill ions
Canad ian
p m
polit ic
not es
u le
mak ers
oc cas
s pl
st one
Des pite
R el
n ine
S il
== ==
at ures
Ro bert
r ated
Q ue
pl us
il legal
b our
commit tee
F ound
g ay
opin ion
Fr ank
mach ine
dest roy
mar riage
L E
extreme ly
B ack
V er
Pr of
profess ional
pro posed
pur pose
f igh
sol id
part ners
spec ies
T ri
bas is
sp read
t ough
mention ed
l ength
flo or
l or
k id
hundred s
fa ith
The ir
st ated
sh ared
am ed
Li ber
contro vers
conserv ative
neg ative
ob tain
J ud
4 1
U T
ur ies
Ro ck
achie ve
g ency
announ ce
Le g
fl ag
S S
be comes
rup t
us ual
____ ____
min ute
fal se
rem ark
de m
D C
bot tom
h ack
be coming
T im
ic it
J im
ap t
Micro soft
S ur
in ch
con stant
P et
p a
sur round
w ild
# #
Ch urch
rad io
b ow
af ford
hold ing
4 3
scient ists
J ones
P D
I R
a ult
> >
At l
air s
eas ier
I V
epis ode
acc used
ha ir
mar ijuana
tr ig
ar a
G ood
sle ep
U R
f resh
val id
legisl ation
comp let
ex er
M iss
ak ed
inc red
docu ments
de g
y es
ra z
e ast
c ash
struct ure
ab ilities
inter net
redu ce
Car ol
put ting
Isra eli
um e
watch ing
b ly
oc cup
veh icle
s id
issu ed
h us
d aughter
att or
victim s
ident ified
g ent
r um
iv en
at ically
audi ence
F BI
E r
Brit ain
inst ance
c ateg
c ards
vict ory
play s
in ing
not ice
dire ction
In stitute
return ed
doub t
n i
P ak
commun ities
n ic
B al
danger ous
cons ci
200 5
leaders hip
he aring
test ing
wit ness
con su
Y et
st ress
9 5
t ren
expl ain
commer cial
item s
S ou
ol der
argu ment
c ro
b urn
er ed
launch ed
separ ate
R os
M at
ch ampion
dri ver
fam ous
z en
G ar
ib ility
an o
own er
trans fer
ic ated
back ground
V e
un it
wor st
A ma
Af gh
cont ain
d ome
l ished
keep ing
ound s
dec ade
Je wish
bl ing
p ow
v ation
t act
M s
g ain
J eff
mic ro
O pen
tr affic
depart ment
Ry an
suppor ters
test s
nor th
ph il
m aster
miss ed
ist ics
ship s
cover age
Te am
init i
Uk rain
Gr oup
dis covered
b ag
wr iter
ear th
h ate
n one
graph y
tool s
p to
compet ition
sur face
201 8
op pos
drug s
repe ated
s we
ac ity
deg ree
o o
allow ing
G reat
F ire
m ous
G ree
T al
step s
vot ed
ck s
ir ing
ple ase
find ing
dr aft
b id
sc he
foc used
far m
US A
rest aur
L A
estab lished
spo ke
h one
comp ar
miss ing
5 6
F ore
concer ned
av a
responsi b
suggest ed
streng th
Rich ard
and om
Y e
ut in
anim als
A p
ak er
T re
ant a
part ner
entire ly
comp on
ra ise
k a
co ok
it ude
5 8
insur ance
con text
dis ease
gr ade
H T
strate g
small er
Bo ok
t ip
or ial
con sequ
crow d
l ad
ic y
gh t
le ge
5 7
Palest in
famil iar
trans port
h un
cri pt
Mc C
est er
confl ict
M od
chang ing
assa ult
in ct
s ports
F ree
hus band
down load
un ion
exper iment
requ ires
light s
5 9
up date
fin ished
stri ke
( )
ann ual
H ome
Afr ican
ct ors
fil es
large ly
! ”
b a
li p
corpor ate
tal ent
business es
ar an
G OP
as pect
re form
cau ght
Afgh an
sub scri
Lou is
gr ant
em pt
S ol
in fl
jo ined
activ ities
ign ed
it ation
gu ess
z one
Japan ese
su st
cr ash
enforce ment
Mart in
ass ess
Mex ico
spe aking
I r
ic on
J on
br ary
Afr ica
candid ates
re strict
iz es
B ern
ab use
R O
e at
And roid
tru ly
introdu ced
out s
reg ister
cell s
plan ning
r ig
f i
believ es
ref uge
dec isions
r out
concer n
sell ing
off ensive
Com p
sh all
n ar
m ut
pres ence
g ins
W atch
can cer
s outh
a j
CE O
J ose
Thom as
bank s
ol f
Govern ment
Vir gin
l on
** **
act s
P ublic
bal ance
four th
5 2
il ing
e g
tell s
wa iting
man aged
Associ ation
fun ds
gir ls
che m
! !
and on
lo ved
M ary
P eter
— —
spir it
meas ures
b ass
interest s
D en
fac es
has n
D an
ex clus
spokes man
hom es
d at
prov iding
G en
p y
re p
ag gress
f ish
beaut iful
I M
s ides
ap s
hold s
mode ls
b row
inj ury
port ion
S ing
recomm end
re moved
R oy
li ved
0 1
use ful
ri al
ul ts
colle ction
hous ing
y a
employ ment
f le
p es
comm itted
re ject
conne ction
h ib
oun der
discuss ion
Ange les
be ll
convers ation
r ou
m es
no vel
m ere
new sp
Ser vice
ev il
N C
stop ped
cut s
form ed
prote ction
fig ures
pres ents
techn i
6 6
Pr ime
comm ission
bro ther
li ance
health y
or ing
kill ing
t weet
l augh
ve ter
fl ight
f ing
4 00
B et
K o
ack now
sk y
ident ity
but ton
ig an
he at
Med ia
Ar my
Sup reme
ir t
m m
P an
relative ly
ro t
sk in
cor ner
Jo e
h an
az ine
exp ensive
oper ating
scient ific
revol ution
plan et
cir cum
than ks
and er
s core
v ant
H el
pl anned
T op
v ul
5 1
ex change
Col lege
b atter
other wise
ron ic
200 4
supp ly
there fore
wind ow
D own
h ang
prom ise
arri ved
Be fore
is ation
tri p
O k
Ph one
ef ul
slight ly
op tim
b in
feel s
b ac
B ob
m ad
i os
ens es
surve y
appropri ate
pay ing
bl es
pro ve
mark ets
ar med
Lo ok
] .
possib ly
start s
def ensive
b ott
skill s
see k
n ut
ig no
A ri
ut y
Secret ary
fortun ately
" :
d den
Y ear
det ect
s ight
med ic
dome stic
ele ments
Z e
ate st
fell ow
Wh ere
So cial
Bl ue
J es
ic ial
Me an
p atch
G al
R u
v a
immig ration
acc ident
lo sing
Im ages
Ama zon
fail ure
pro p
P ower
S how
con struct
amaz ing
ak s
ad just
Bit coin
f ly
B ow
D i
bo ys
A F
if ying
be er
fin ish
sus p
Ch ief
ly n
suggest s
con stitution
ain ts
big ger
S E
ar my
scri pt
i ation
l an
H all
f ired
no on
num er
act ing
7 7
l uck
5 4
int ended
Syri an
t ag
s witch
Cent ral
u ce
rem ind
Tor onto
y ards
photo s
second s
gl ass
anc ing
ph ones
bre aking
in sp
er ror
Se cond
con ce
Ste ve
tal ks
F ig
r at
we ar
M en
5 3
aw ard
car ried
R ad
con sul
su dden
loc ated
tax es
On ly
environment al
ac adem
d im
lot s
organiz ations
id ers
ain e
au to
absolute ly
happen ing
vot es
un less
ly m
p il
app ing
B ost
C amp
help ing
broad cast
alter native
r ush
M ass
ic ide
E ach
fill ed
dec ide
app ly
un ivers
con vict
bro ken
see king
H L
appear ance
F ar
turn s
stand ards
C P
ast ru
Th ough
Col or
spr ing
car bon
u ate
str ing
im possible
connect ed
R em
ll er
ag ues
su ff
May be
ac es
dro pped
S our
G lo
hum ans
fil ed
graph ic
gy pt
har m
sec ure
f if
dist rict
6 8
vari ety
J ournal
F ederal
Br ad
ac counts
de ploy
v oc
pos itions
res er
anim al
s port
apparent ly
= >
N AS
Bost on
Get ty
mult i
ar g
possib ility
pro spect
O L
v ast
cap acity
got ten
I G
Le e
cl im
own ed
ad ium
un its
fac ing
neighbor hood
profess or
fac ed
! "
elect ed
sched ul
increasing ly
val u
regard ing
le an
an cy
help s
fund ament
relig ion
te l
develop ers
E gypt
Carol ina
phil os
t ight
Sp ace
chem ical
ut ers
tw ice
For ce
St ill
sh ots
prep ared
P ac
Found ation
ph y
inter nal
H or
r om
M el
exper ts
cre ation
ap ers
wor ry
Gu ard
surpr ising
develop ing
sound s
tr ail
S ign
CN N
199 0
Dist rict
are s
r ay
pp ing
com ed
M ich
C y
comfort able
it z
se ctor
astru cture
sold iers
sol ar
M att
F o
k ins
H ist
author ity
ultim ately
al ty
aw a
al le
sat is
se at
ab s
imag ine
clo ser
ill a
Mid dle
F A
ag encies
war ning
el im
cept ion
C ath
cy cle
curren cy
C ru
R ight
hone st
has e
r ick
bring ing
k i
V iew
st ars
ab ort
affect ed
7 8
ma xim
mo v
ur ation
j our
cap able
pie ces
k in
L ife
responsib ility
g ment
sit ting
c old
pos es
ol ic
r andom
up s
re ci
M ont
estim ated
ev in
Ab out
pass ing
ans ion
pl ed
dom in
cult ural
d ress
br idge
pl ate
Francis co
co hol
at ers
applic ations
R on
K el
pr ime
pro to
t i
d ict
Not e
Willi ams
elect ions
D ou
Con serv
E M
un iversity
H u
Austral ian
L at
bab y
ag ent
S um
surpr ise
we ather
exper t
Par is
um n
200 3
cr ack
Med ic
present ed
con clus
And rew
Virgin ia
t un
ev al
b att
e per
ad a
gu aran
expl o
e qual
ad or
bo ost
Pro ject
st ances
mo dif
com plic
D S
H aw
and a
specific ally
au th
k o
attor ney
att end
H y
dr am
F ort
= "
pur su
av y
plan e
m ort
R iver
D O
z y
veh icles
pers pect
gr y
st ret
ad vert
qu ot
pl ants
ren der
tr ick
p ull
occur red
ed s
deter mine
T en
ri ble
act or
ic ient
.” <|
pot entially
p in
sym bol
Th ank
press ion
C C
re move
200 1
re cru
rap id
s ale
C am
8 8
determin ed
stre ets
point ed
opport un
mor al
EN T
olog ies
j ail
-------- --------
experi enced
liber al
st s
comb at
as sum
lo b
as p
art s
B ud
viol ent
tro ops
I ON
paren t
Th anks
ur ban
list ed
g or
15 0
vot ing
N Y
We ek
D aily
pl enty
ant ly
ser ving
weap on
th r
ester day
f aster
sp here
cy cl
vul ner
ap art
ul ate
appro ved
tw itter
res ol
S pr
ch er
fact or
express ed
r ide
coun cil
st ance
S ports
govern ments
B us
trans l
mon itor
F our
B BC
V ol
fact ors
infr astructure
b ought
equip ment
ret ail
Jack son
N E
propos al
ro g
season s
tr uck
Mean while
- >
rul ing
B lo
offer ing
ck et
6 7
sha pe
Willi am
n d
Is land
s am
use um
leg it
Hum an
D P
we aring
D ani
sh ift
In de
rele vant
in i
our s
Tur key
origin ally
Oh io
hand le
] ,
Pak istan
ref used
significant ly
method s
test ed
reg ime
conduct ed
G O
tur ning
end ment
minim um
lead s
consist ent
Sy stem
ib ly
gre atest
w is
challeng es
record ed
P y
let ters
ure au
em br
Direct or
tre ated
ap preci
defin ed
ust er
cal cul
dist ance
< /
rem ained
, '
percent age
you th
back s
sa ving
er o
obvious ly
R us
K ar
de cre
cre w
h all
inde ed
D E
sign s
tempor ary
bro ke
ul ated
cl in
app s
wer en
is her
trad ition
t ree
Re uters
mot iv
Lab our
gre w
ce an
support ing
ris ing
purch ase
tour nam
0 8
invol ve
w id
ins ist
air craft
put s
De velop
vis ual
B est
contro lled
pow ers
K ur
et ic
p ages
redu ced
bod ies
bas ically
t ally
or al
gun s
hur t
K im
rem aining
enem y
ci ent
s ac
ash ion
re venue
consci ous
her self
con cent
lo y
consider ing
ident ify
P enn
R od
expl os
list en
vide os
T A
serious ly
ra ising
clud ed
Se a
dis crim
pro ced
contr ast
H en
0 5
I ll
col lap
pack age
exc ited
S P
Con ne
argu ed
she l
after noon
Ag ain
politic ians
H ou
Sci ence
list s
AN D
prof ile
ter rit
j i
order ed
m ates
emer gency
war m
O lym
emp has
ent ry
n arr
be long
ach ed
Gr and
it a
consum ers
priv acy
ig er
m outh
O F
pul led
en h
O K
comb ined
complet ed
squ are
ex cell
fil ms
conf idence
sh ad
pro of
differ ences
re action
H al
adv ance
bl ow
S qu
19 80
sh ar
qu es
mo ves
S ar
S her
D ar
al cohol
It s
ens ions
f old
typ ically
cr az
mar ried
ro ot
act ed
rel ations
op posed
re ference
sever e
strugg le
wr ites
i us
B O
even ing
qu ant
talk ed
Sc ot
int ent
rup tion
r ang
D u
opportun ities
link ed
head s
dre am
ri er
ay ed
spl it
ac he
techn ical
hop es
pan el
wide ly
ve y
Muslim s
F il
g ri
G M
stand s
R A
wr it
ll ow
0 9
st im
prom ised
B raz
dy nam
dis h
respon ded
pl om
Pl an
f ounder
conf ident
def ault
pick ed
c ou
st al
C A
enter tain
col labor
s cor
fe st
h at
L ong
appoint ed
Pol it
pro ceed
L oc
cli ent
fr ust
Ro ad
C re
W he
co ast
attem pts
decl ared
De c
pat ient
trou ble
200 2
pre ced
fr anch
sk i
in struct
k no
6 9
as sem
j u
r ail
N BC
sh aring
R am
St an
Cl ass
re new
ordin ary
repor ters
0 2
Se attle
gi ant
ele ment
d ial
IS IS
dri ven
mat ters
S ky
f re
per man
rou te
wal king
cap tion
terror ist
grow n
report ing
trans ition
res olution
g am
fair ly
in vent
den ied
edit or
E lect
M et
Afghan istan
S audi
Ar ch
C all
int end
So vi
bur g
Mich igan
ex ter
W ork
appe al
ask et
0 7
copy right
P N
Th ree
qu iet
west ern
M em
, [
prom pt
M oun
T ake
U l
instit utions
H a
Y oun
I re
numer ous
dep th
t ail
N ext
di ag
L ake
ut ter
S et
cr imes
ig ation
g ia
T ube
M ax
og ue
vent ure
pre par
F O
Phil ip
w ire
bu g
En ter
un te
un able
reported ly
Christ mas
fact s
om in
necess arily
terror ism
mess ages
B oy
F re
ic ing
se es
y ard
zer o
ag ents
ad er
art ist
t il
arch ite
N BA
perspect ive
pict ures
T S
U C
adv ice
deliver ed
de but
rad ical
mov ies
Ukrain e
ad mitted
Tech n
Con tin
do ctor
on going
suffer ed
W ood
inj ured
D id
experi ences
." <|
em ails
perform ed
cre ative
pr oud
should n
w ins
newsp aper
ab led
friend ly
t le
N O
ear n
ev ol
sub stant
w age
f ashion
room s
al es
ple as
of fee
Com mun
pr a
find ings
dri vers
ol es
though ts
expl ains
decl ined
gr ab
p ure
con fig
v ac
0 3
L ar
Rom ney
jo int
c us
ess entially
m i
con firm
ch a
upd ates
Braz il
le aves
P rem
secret ary
art icles
hab it
n av
state ments
V ide
gu est
Per haps
n ations
cent re
Sw ed
for get
F am
read ers
i Phone
bi ke
C op
democr acy
Ch ild
public ly
W omen
In c
mot or
ath let
pl ot
0 4
w ave
G i
camp us
indust rial
Au thor
cont ains
w ed
L ist
ie st
effect ively
be ar
ul a
C ard
cover ing
exer cise
att ribut
Re al
il ty
enc ing
G reg
b are
ans as
figh ters
ac compl
insp ired
vis ible
govern or
activ ists
00 00
effic ient
lawy er
W ik
end a
mot ion
our selves
object s
real ize
exam ples
0 6
ad op
Je ws
ess ential
F urther
T est
ner gy
p it
di plom
K ey
th ro
than k
V ict
build ings
, ’
arg ue
trig ger
critic ism
B i
alleg ations
r d
O ld
adv anced
g ro
lo s
expl an
8 5
Ire land
pract ices
photo graph
ul ations
bo ss
E conom
Bo ard
An n
material s
schedul ed
B ul
sub sequ
depend ent
Sh are
a the
dat ab
Bar ack
ion ally
ca uses
my ster
st ag
can n
think s
C ub
Com mon
moun tain
ne ither
r ally
im plic
every body
W ay
ab in
cer t
exist ence
Bro ok
exp ansion
No v
ch ip
St ory
st ers
in ary
au se
3 D
M ot
patter n
B as
ab andon
D ata
accept ed
to tally
V an
is ol
mag azine
E v
Cl ick
inj uries
des ire
war ned
citiz en
g on
sh if
init ially
app lied
You Tube
pass eng
met al
il li
sit u
K evin
As ia
ot ic
at mo
Palestin ian
k n
ol ar
ol a
stor age
Dani el
re presents
M E
ag ers
sto res
surpr ised
impro ved
G ames
hy po
C are
Color ado
incre ases
hi bit
mon d
dis put
distribut ion
link s
sco red
rough ly
ear ned
L ove
histor ical
fun ctions
play off
m l
announce ment
consu mer
Rom an
ut ch
fr u
po ver
class es
che ster
Ch ampion
threat s
ul ty
Hou ston
: :
D iv
follow s
augh t
Sour ce
draw n
C iv
y esterday
li brary
communic ations
flo od
consequ ences
discuss ed
Cl ub
W r
off ense
express ion
ill ance
ear ning
near by
ang ers
post s
Prof ess
Char les
7 2
gu ilty
L C
St and
stret ch
enter ed
Kore an
D ie
L ink
e ll
K y
class ic
fem in
N az
be gins
back ed
ir ty
7 6
S a
Sovi et
Jes us
temper ature
add s
ben ch
stor m
song s
P utin
Hol ly
is land
g ap
It al
c ere
fr aud
appro xim
s now
push ed
r age
qu ir
comb ination
s ought
B at
Dav is
ad ing
w inter
w aste
br ings
E li
br anch
L ord
pr ay
restaur ant
So ci
for th
bu ying
en a
high light
w hel
suff icient
man age
rece iving
con ven
quar ters
ER S
compet itive
market ing
o bl
lock ed
ho le
Youn g
g ang
in ate
protect ed
Che ck
un likely
a than
miss ions
de fe
W is
g ate
E ric
st able
nor m
law suit
reason able
he ll
cl ar
pi pe
par liament
T ay
ev olution
invest ors
f uck
C ast
kno ck
suc ceed
' ,
oper ate
net works
6 00
gu id
some what
Def ense
N at
death s
vers ions
inde x
heav ily
ic ts
S U
ac le
not iced
T it
ra pe
ill ust
fav our
target s
emot ional
l it
div ision
R ights
sc ar
br ight
and al
E nergy
young er
fl at
w ers
Ari zon
any where
str ange
fl ash
import ance
T R
8 00
the less
sust ain
A h
p ace
ne ut
pl ug
D un
ter min
sh it
accur ate
re v
protest s
G or
D am
R et
me at
hard ware
C IA
du c
li qu
colle agues
M u
h id
Cru z
NAS A
s ick
hous es
appro val
ad ults
B or
auth ors
7 9
d it
de mo
Cath olic
alleged ly
T urn
res ent
he ight
con v
prom in
C amer
A li
m ath
S C
des k
craz y
sign ing
tin y
Har ris
do ctors
i ence
L and
lob by
iss ions
custom er
am in
Ne ver
m ate
Arizon a
regul ations
2 50
fac ility
abort ion
re placed
carry ing
f asc
ag an
hand ed
Con stitution
19 70
ious ly
B M
vol unte
Un fortunately
li ft
R a
ca pe
oppos ite
In vest
Val ley
out put
excell ent
pre gn
S H
head ed
V is
communic ation
mom ents
gu ide
R un
J ava
acknow led
e ating
feat ured
ou l
Fin ally
chair man
6 2
6 3
frequ ently
suffer ing
i ency
co very
oppon ent
be ls
few er
col umn
us al
V R
as ide
do ors
under stood
close ly
co ordin
vol ume
w ound
return s
T ot
W in
virt ual
immedi ate
U t
fundament al
Mill er
i i
liter ally
s and
hard er
St ation
controvers ial
O ct
ok ed
hop ing
Wil son
L ight
f li
man ner
f ur
ur ally
Ad am
es ome
m ile
proper ly
reg ional
stru ck
g al
fix ed
D ark
particip ants
je ction
tren d
pass ion
wel come
W ater
refer red
il s
read s
D etro
J ord
in cent
H S
G P
ob serv
os en
detail ed
Sp an
ult ure
ro s
el ine
D em
V ER
Detro it
ext ent
k ne
cut ting
Po int
k m
an cient
in stru
push ing
immig rants
inte l
upd ated
re put
as sets
ear s
circum stances
tournam ent
watch ed
H ot
iz on
P en
O per
Spe cial
( "
9 8
ca using
pro ved
B rian
descri be
F er
L O
relationship s
D ig
su icide
deep ly
fr on
kind s
ha w
N ight
eful ly
b at
d ad
sent ence
commit ment
dis ci
d ry
on om
Am ong
6 1
administ r
field s
S k
target ed
sh r
stud io
As s
decl ine
Ste phen
mag ic
c ue
was h
art ists
C ome
sub sid
along side
V i
claim ing
At tor
act ors
M ake
H D
st ab
H un
know ing
ded icated
sched ule
typ ical
top ic
U s
N ick
th y
repeated ly
rem ote
found ed
Wh ich
real ized
s ister
ind u
over whel
jour ney
et te
L ive
main stream
attempt ed
Pac ific
uni verse
w ake
b asket
direct ed
ir on
up coming
ac ed
pay ment
pre cise
ac ce
ad el
ate ll
i as
ur ning
chan nel
cl oud
k il
select ed
s ample
fund ed
walk ed
dr ag
( $
w art
surve illance
approxim ately
J r
H as
ard en
teach ers
i at
ar io
l atter
deal ing
Lab or
mak er
od d
D NA
franch ise
ag enda
re ward
Re port
ob served
li kes
inform ed
it ors
D ri
w an
T C
teach er
un known
ul ous
mark ed
% )
It aly
Geor gia
en counter
hot el
7 4
in ating
is ms
s weet
v acc
v ices
se lection
t ank
Jord an
exc iting
f lex
ct ic
Or gan
proper ties
For d
bo ot
Tur k
constitution al
oppon ents
diag no
con vent
H ave
al ive
ad ult
batter y
Holly wood
mist ake
fif th
Mi ami
win ner
represent ed
con gress
ext ended
II I
con ver
av en
R ay
ed ition
surround ing
c offee
loc ations
in put
sp in
de ck
an x
s ending
Ye ah
S uch
the ast
do gs
em an
it arian
ll a
ask s
Jo sh
ac ing
impress ive
nor thern
protest ers
S O
fe es
P ay
nar row
im ents
press ed
u zz
des er
199 9
ang le
in her
ger y
pover ty
T ele
ens us
maxim um
A sh
fol ks
m arch
pun ish
aud io
hon or
require ments
pos sess
Kel ly
to x
ab is
or ient
writ ers
whe el
equ ival
R og
Span ish
t ort
Comp any
empt y
ke l
refuge es
Th us
ist ry
up per
G az
consul t
ret ire
resist ance
de feat
Ad minist
cl es
Mo ore
bl ame
the me
g reg
z o
phen omen
C ross
invol ving
defin ition
destroy ed
de put
prom ote
ris ks
p hase
op hy
Bus iness
D all
Vict or
Sen ator
um s
lim its
ens ity
N HL
Or ig
ick s
organ ized
O s
attack ed
lo an
stri kes
territ ory
shar p
ill s
di et
Ir ish
Dis ney
match es
mark s
ex posed
d uty
any way
satis f
scen es
form at
mere ly
argu ments
ri val
S ever
Soci ety
al lies
request s
Attor ney
ash ed
C D
we igh
leg ally
col on
As ian
Net work
sudden ly
clo ck
St art
b unch
int ention
slow ly
hol iday
strong ly
A v
Jose ph
ex po
ick en
de als
an ony
quarter back
ph r
es cape
G ra
pay ments
support s
c cer
intel lect
ch ose
ch ap
lic ense
assu me
Jer sey
Civ il
wor ried
in als
che ap
’ .
ap ol
offic ially
ill ing
pe l
8 6
ser vers
cor respond
aw n
t es
Ag ency
de leg
b io
P ack
in fect
recogn ize
rul ed
ad ed
har ass
) )
B a
employe e
Inde ed
en able
it able
fac ilities
journal ists
f lying
vill age
obtain ed
S ometimes
Ã Â
re h
valu able
8 9
squ ad
reg ions
sc ape
eng age
fall ing
capt ured
t ent
bl ind
Min nes
C L
nom ine
S ho
success fully
I F
she ll
categ ory
Scot land
work er
T ony
ÃÂ ÃÂ
crit ics
F all
f ake
sche me
go d
may or
Pro gram
ins on
ro bot
E duc
person ally
some how
Ser vices
gener ated
W ild
in sul
Glo bal
Ac adem
datab ase
P op
ste in
ide al
con spir
capt ure
sol ve
R ick
ax y
fe ction
g all
con dem
T em
W H
Do es
G ir
st ack
col l
K ir
L GB
Dall as
em en
man n
do zen
some where
U L
the tic
De ad
Lin ux
G E
h its
P ad
W E
ch osen
gr av
N S
pil ot
em issions
Sou thern
Fore ign
gener ate
pol ls
7 1
ass er
compar ison
7 3
mix ed
sou thern
z ing
N one
L ad
M ob
encour age
in fo
Ital ian
inter pret
electric ity
register ed
develop er
is an
Fo ot
tre es
tick et
ne ls
trad ing
est ate
Sp ain
clo sure
ext ensive
Tay lor
des per
d ated
par am
g aming
prim arily
Minnes ota
in tim
Ma jor
sh ire
LGB T
Follow ing
pl o
strong er
meet ings
con stit
Hist ory
compon ents
in ations
aw esome
ow a
perfect ly
road s
rac ial
good s
comp reh
spo ken
amoun ts
war ming
af fil
pur poses
pet ition
ent ed
pr ise
z ens
ow ed
threat ened
c in
no body
D et
aggress ive
employ ed
i el
O p
W ars
Vide o
some body
F ood
Ch an
Sh ar
re tain
Mus ic
instit ution
Ser ies
roll ing
With out
es y
Th rough
ad apt
reve al
N ations
h t
og y
en de
W el
disci pl
Se ason
t ied
find s
program ming
antic ip
fl av
park ing
publ ish
enem ies
end or
as er
dist inct
re ck
cho ices
l um
se ats
my th
ans wers
spe ll
regular ly
reg on
pass es
ap y
narr ative
sol utions
re y
b ath
d ers
Democr at
J ason
constant ly
sc ow
ast s
tit les
P G
block s
estim ates
reject ed
il ly
comp ens
st uck
priv ile
E ver
aspect s
ex ists
A BC
manufact ur
techn ologies
sign al
ke ys
resul ting
Com m
pl astic
world wide
continu ing
install ed
prov ince
b ull
ex cess
s can
star ter
it i
N ation
W S
else where
Pro te
contro ls
G iven
ter rible
r ational
histor ic
in n
any more
u a
hid den
ren ce
a fr
G all
H op
incred ible
an gry
coal ition
ut il
drink ing
Br on
0 x
incred ibly
it ar
engine ering
en thus
v ard
rout ine
contribut ed
c able
U se
coun ty
consum ption
T P
man ip
N ame
out come
base ball
g g
+ +
M etro
atmo sphere
B on
cli ents
T E
F al
Hen ry
K r
draw ing
S imp
C at
ne ur
ad mit
ap artment
con cluded
L am
cu it
U r
p se
C ir
s atell
gre es
cor ruption
ict ed
min ing
att ended
re in
in spir
y o
O regon
199 8
eng aged
complic ated
ic ip
share s
power ed
H ard
keep s
Rev iew
vis ited
Par liament
bill s
mach ines
K ent
situ ations
c ited
el ines
K er
N AT
T our
dep ending
I owa
or ation
assist ant
Ke ep
repor ter
S now
R ose
cru cial
perman ent
U sing
s ider
ext rem
ro ster
demand s
ro l
." [
il it
ld er
R and
Mo scow
sp ons
c ers
new ly
ge o
re ly
St at
1 20
def ence
end ers
pen alty
adel ph
con test
bit coin
C R
C red
ret urning
se ct
neut ral
reco very
academ ic
cour ts
S l
An th
fir ms
M ars
Jud ge
ro se
S D
u ated
el ite
East ern
sc ope
equival ent
Phil adelph
Rad io
t ap
V iet
al and
C BS
pre ad
conclus ion
grant ed
explan ation
iven ess
la id
plac ing
assist ance
fin ance
S ir
P i
F ield
Bu ild
product ive
Nor thern
reach ing
l ined
M ah
feed back
main ly
t aught
Ju li
produ cing
track s
p ha
co gn
li ked
Al ab
olog ist
compl aint
K at
en or
sp ark
co ck
com ic
de grees
M ir
expl ore
Philadelph ia
F air
expo sure
t aste
ast ed
teach ing
F und
7 00
establish ment
et ch
L ittle
regard less
Gree k
gor ith
pos session
h es
e c
su res
He ad
uc ing
el ig
Whe ther
f iction
veter an
ch ances
Wis cons
hold ers
sus pic
Be ll
==== ====
Con tro
J ay
to ler
afr aid
Har ry
def ine
aim ed
Go v
B attle
prop ag
discrim ination
or ter
fact ory
L im
fun ny
techni ques
med ium
am ber
r ub
H ay
B ry
st ations
Co ast
form al
found ation
scor ing
f ought
.... ....
th in
Wiscons in
dis aster
law makers
sh irt
ch art
p unch
vulner able
Pol icy
autom atically
Pl us
re cording
H P
collect ed
H it
sur gery
lo op
P ass
S cript
B ol
is er
br id
id ency
O ak
for cing
W at
surv ive
T ar
19 60
we ird
Ch o
lawy ers
person nel
Mark et
! <|
D re
ed ia
Man chester
D ev
P erson
Profess or
M aster
f is
int ense
p ounds
d rew
ent it
negoti ations
C S
Bern ie
mon y
patter ns
princi ples
Turk ish
Co de
% .
dist r
at om
bus y
H aving
process ing
reput ation
pos it
Com mand
D R
C ore
partners hip
un certain
Alab ama
Spr ing
brow ser
Sever al
sens itive
Off ic
down town
emer ged
Mat the
An ton
accept able
ext ension
bo ards
Cur rent
Develop ment
B ir
z ed
R ub
enjoy ed
May or
c od
thous and
un usual
S on
coun ted
ed a
N avy
ne uro
es h
Bow l
ri ver
lay er
arr ay
y ield
minor ity
it als
br ut
compet e
prior ity
A venue
A ction
democr atic
per ce
tr ained
in er
pro ven
promin ent
fing er
in tr
th ick
ES PN
L ine
m art
descri ption
p ir
O w
ck er
comput ers
process es
ce l
R ol
ro ots
u ine
ve get
aren ess
s la
U FC
vis ed
rank ed
cont aining
M M
ill ed
Roy al
adop ted
in ev
bar r
la bel
gr ass
Ro ber
war rant
b ind
S n
9 6
compon ent
L y
acce ler
descri bes
r ics
Educ ation
part isan
every where
co vers
resul ted
recogn ized
redu ction
club s
Atl anta
contract s
expl icit
advert ising
cy ber
tax pay
L yn
r aw
thes is
cre ates
j ury
’ ,
rare ly
m its
had n
Rel ated
G ul
Prem ier
l van
Re cord
inter face
produ cer
feel ings
implement ation
o le
A I
199 6
Ze aland
san ctions
199 7
ok ie
or a
wall s
En d
rid ic
ent al
8 7
journal ist
ag ric
im per
amp ions
et t
short ly
per mission
cont ained
camer as
Up date
mo on
ou ch
W as
g ained
t all
worth y
bo at
I E
In formation
King dom
igh ter
N um
expect ations
re str
pract ical
ian a
roll ed
u ous
v y
Anth ony
c ig
ser ves
scen ario
coun ting
F ull
Am endment
rac ist
Pat rick
AL L
p ump
af ted
al gorith
E p
legit imate
bor row
pl ain
hit ting
coun sel
cre te
cann abis
me l
arr ange
fr ag
sa ved
B ad
h ide
wonder ful
princi ple
do zens
B all
G A
br a
K now
8 2
basket ball
E vent
inno v
hor se
fall s
g ift
ne ck
del ay
ground s
gen uine
Li by
m ac
u ed
reli ef
s op
sett lement
Col umb
as ion
ha z
b anned
ch at
o h
particip ate
Comm unity
T ro
I ce
B E
loss es
D y
intellect ual
dis cover
AT E
manufact uring
am m
dist ur
deli ber
e uro
indic ate
t one
L og
st ro
vis ions
en to
end ors
Em ail
eth nic
ult ural
indic ated
201 9
mo le
then tic
fl ed
All en
pt ions
de struction
cess ion
For mer
leg end
McC ain
ask a
Every one
St one
air port
exclus ive
F ind
Fam ily
g us
s in
li ver
T ed
K ansas
head ing
be half
M ain
st un
un like
pos ing
ade qu
ose x
Que en
8 4
con vin
N OT
Academ y
A ud
join ing
gr ap
Christ ians
il ton
et ime
1 st
Ty pe
co s
enter ing
st up
progress ive
qu it
po d
foot age
H ur
Con ference
Cent re
exter nal
prof its
L ind
achie ved
l ers
strugg ling
grad uate
Administ ration
ri fic
Th ink
j ack
ann y
ap olog
tri but
8 3
fl aw
De ath
struct ures
trans form
except ion
Wal ker
G un
st all
r ical
C ost
f ab
deli very
w ine
n ur
con vention
osex ual
Die go
uck y
9 7
et ary
l oud
AP I
epis odes
h ired
Y O
elect ronic
S ony
move ments
ex tr
profess ion
Ear lier
philos ophy
u ct
fil ter
lvan ia
F F
belief s
list ening
C a
norm ally
d inner
th rown
review s
ig en
ret ired
b ond
: <|
de em
ast ro
bare ly
Conserv ative
se as
Fe b
M B
ro les
i OS
i ary
lic ens
langu ages
tack le
st adium
interview s
bur gh
A le
op her
com mod
strateg ic
pro portion
farm ers
MO RE
s per
affil i
or bit
T own
convent ional
________ ________
Camer on
mil k
Lat in
Med ical
He y
b its
S ams
reg ulation
ides pread
ul es
clo sing
ro of
C it
D ol
owners hip
men u
smo oth
199 5
recogn ition
ann a
gon na
B road
As sad
% ,
rock et
dynam ic
N SA
d ies
pe ak
fore ver
ing u
terror ists
nomine e
has h
per pet
Eng ine
Sep t
techni que
Gold en
trans gender
B ab
L ef
Penn sy
T un
ch ant
s is
hy dro
reli able
reg ist
Be ach
sett le
C ry
9 2
challeng ing
independ ence
R C
9 3
ge ar
oun ce
Aust in
S ix
if est
S anta
break s
Fig ure
luck y
sug ar
us age
h r
Squ are
aw areness
v ary
X box
b ail
Cha ir
ud es
associ ation
En vironment
ic ation
S us
F i
wel fare
tick ets
gen etic
convin ced
s que
F un
I d
gr id
phys ic
20 th
S ure
S em
F reedom
l ins
abin et
ill ness
corpor ations
restrict ions
ri ers
ultim ate
Al bert
fru it
th read
h ill
collap se
ak ers
convict ed
represent ative
U I
2 nd
red ucing
le te
ES T
V o
class ified
sp an
ver age
tim ore
co ins
ur a
rapid ly
8 1
par alle
h en
1990 s
Pennsy lvania
F est
smo ke
Sams ung
inv ited
ci a
comp at
b ars
l u
P it
o cean
conne ctions
t ab
frame work
overwhel ming
ali en
w idespread
suggest ing
D ave
L ater
ex ceed
fis cal
hard ly
th on
vious ly
sco res
fant asy
web sites
est imate
log ic
dev ast
L ow
P ot
ic ting
be gun
199 4
prep are
B ase
feat uring
not ion
prom ises
sor ry
liqu id
po ly
ri ots
equ ally
ak a
ou ver
x x
b ury
ack s
peri or
t ts
contribut e
J am
K u
sel s
in y
document ed
cry pto
vers us
us ive
care fully
initi ative
' .
campaign s
i ety
dis covery
pto ms
And erson
stat istics
so ver
H A
Co ok
An im
A ff
Des ign
Iran ian
Le wis
cas ual
un clear
ion e
Contro l
v ital
perform ing
Cop y
9 4
east ern
R ef
j a
cap tain
fer ences
respect ively
sou l
Li ver
Mo on
out ing
F ive
Pr ice
St ri
L as
Arab ia
M ess
ast ers
less ly
sp aces
ou red
al a
view ers
throw ing
A ge
al o
f ro
behavi our
graph ics
r he
no ise
Bo x
Guard ian
H an
ho c
resour ce
mon t
ach es
task s
F ed
sc andal
involve ment
view ed
d ates
f fect
leg s
Ex ecut
Bal timore
substant ial
Columb ia
p apers
fail ing
threat ening
S el
rac es
Ken ned
figh ter
bre ath
guaran te
Em p
ol s
b n
por tr
mind s
th al
prom ising
Pr ince
Gree ce
P age
anc ouver
How ard
collect ive
investig ate
de cent
stup id
Sh ort
t rem
subject s
att ached
Min istry
setting s
W A
li ps
deput y
V ancouver
implement ed
P ict
ic ious
de eper
Associ ated
re pair
Mass ach
L ev
il er
j ur
] <|
Div ision
la h
ino is
igno re
inter vention
compl aints
use tts
az z
or n
Cred it
any body
hib ition
Massach usetts
E ll
sam ples
un employment
mag n
conspir acy
ext end
H and
az e
pres er
dis appoint
improve ments
refer ring
T ok
barr ass
re ven
hand ling
Rev olution
attack ing
map s
NAT O
P ent
R T
recomm ended
Kenned y
T ha
bar rel
dram atic
M os
S om
S ab
F ix
entertain ment
1980 s
O D
## ##
mig ration
miss ile
tem pt
am bit
or ate
improve ment
test im
ex tract
public ation
r ural
Mar vel
controvers y
Ill inois
b one
e cho
d iversity
t u
neigh bour
qu ote
ivers ary
vir us
B ang
ol en
aff airs
Foot ball
S or
sw ing
gather ed
uni or
fall en
Just in
" )
Ve gas
In tel
se cre
au thentic
N i
act ively
d ump
M useum
Iraq i
Atl antic
v als
end um
n an
be th
expand ed
read er
bo om
touch down
C level
w ages
S i
Moun tain
P u
st ake
suspect ed
ri e
human ity
medic ine
Clevel and
civil ians
St or
track ing
visit ors
fore st
tit led
ne st
purch ased
hand ful
load ed
infl ation
sal ary
chap ter
plat forms
oun ced
Champion ship
Sar ah
remark s
Mex ican
enor mous
—— ——
tweet ed
bro thers
attempt ing
AF P
el ess
spirit ual
ye llow
activ ist
discuss ions
ret t
d ance
dr ama
ik es
con sole
em barrass
mor row
K night
e en
ste el
se ed
pan ic
low est
V E
um a
with draw
clo thes
n ick
Gaz a
t ie
sym ptoms
tox ic
C hel
ing red
And re
p he
am id
son s
b ureau
g ains
te a
ent re
in quir
th ir
Ho spital
proto col
Mr s
Bel ow
seem ingly
ast y
should er
T able
D a
col ors
ast ron
itch en
to morrow
on so
w aves
Un like
cho os
9 1
pers ist
sh ore
abs ence
susp ended
Alex ander
are t
Be ing
stay ed
in ning
P res
A k
address ed
Jon athan
be c
I ron
In telligence
P a
bac ter
prov iders
res ign
lo ans
sil ver
consist ently
investig ating
Sup port
coach es
intend o
w aters
Sim ilar
invol ves
wid th
F inal
et ies
Cl ark
ific ations
Lef t
sh ield
F I
virt ually
pain t
Ru by
advoc ates
. -
she et
su its
investig ators
E P
of t
opin ions
bur den
Mag ic
S af
hor ror
ri a
check s
h int
Ut ah
t we
div ided
Se an
G a
care ful
ot y
G T
N intendo
ar on
C ON
s me
P sy
199 2
w rest
ri ot
J ac
3 rd
N ic
th rew
transport ation
Qu est
depend s
R ather
Con f
m ary
c ular
Photo s
offic es
ass ign
Ob am
B uff
help ful
j er
dom ain
Port land
fo ss
if ies
Techn ology
sett led
att itude
effic iency
Liver pool
pain ting
d ust
M un
On tar
O x
M ap
St adium
not ing
ex port
prem ium
o on
t ics
b read
nat urally
Indian a
fant astic
personal ity
ex it
Rober ts
ic ate
speak s
Ok la
guaran tee
all oc
ball ot
Blo om
b ird
b rown
Art icle
sch olar
hol es
up set
W ould
ele v
t um
x it
f ed
Tot al
c ust
W a
ge on
ab ol
correct ly
comp ass
conserv atives
bu b
com pe
vot er
Mo ham
Tre as
distribut ed
common ly
prote in
comed y
de pression
Child ren
Cor por
P os
V A
mar gin
pl ing
t ape
Swed en
E ag
jo ke
it ary
Den ver
appreci ate
ab sor
! )
S had
ne ys
? ?
20 20
encour aged
F riend
1 000
Q a
1 10
inno cent
inno vation
shad ow
Spe aking
defe ated
convers ations
G il
contribut ions
protect ing
represent ing
Fr ont
C er
meas ured
acknowled ged
vis iting
phr ase
P ur
incident s
jud ges
T ra
D er
rac ism
r anks
Sil ver
M it
cre am
ann on
impro ving
e co
un a
ick et
vo id
rhe tor
replace ment
du b
r ome
( “
hy per
cl er
fe ars
leg acy
L au
A z
Ear ly
re vel
" .[
b ust
g ig
spokes person
acqu ired
mus ical
Ontar io
pre v
tw enty
ball s
qu er
subsequ ent
ition ally
so il
gr at
sp ots
fli x
p ound
M AN
trans actions
stud ied
w ich
K ong
C ow
C B
l en
am b
per mit
199 3
Pri v
B row
Sh ould
ing e
champion ship
J P
Ste ven
ch ron
mist akes
Gover nor
cri ption
C ustom
bir ds
assess ment
appear ances
bl ank
ij ing
ht ml
ick ing
ma them
home less
Every thing
introdu ction
h u
gu itar
up grade
cop ies
Mob ile
abandon ed
prov in
Emp ire
un ions
b old
**** ****
Gra ham
I O
m ers
function al
s kept
gu ards
own s
en cry
J ere
access ible
Br uce
temper atures
Be ijing
di verse
c ow
Ind ust
War ren
elig ible
shop ping
Ed ward
tr ave
st olen
E X
print ed
answer ed
respon ses
stri king
au g
fore cast
monitor ing
ac id
Br idge
Liber al
ac are
D utch
ne ll
re ar
tou rist
accompl ish
r amp
bl ess
l ux
r iding
R en
Net flix
M D
Car ter
T es
No thing
scient ist
' '
smo king
re vers
l unch
fest ival
Rem ember
S ound
Cha p
let ting
rece iver
G ary
On line
passeng ers
Le on
M uch
demonstr ated
L is
in f
block ed
rat io
obl ig
sequ ence
Bre xit
f its
nom ination
V P
des c
1970 s
Play er
Th ings
l at
members hip
me mo
it age
pr on
person s
so ccer
frequ ency
la be
mid field
F OR
res cue
refer endum
Gal axy
igno red
Okla hom
st ages
t ical
Loc al
second ary
Obam acare
p up
liter ature
head quarters
beaut y
pt on
M ult
ho sp
ton s
Car l
fir ing
week ly
ed ing
ad ap
Red dit
k it
Chel sea
introdu ce
arri ve
Mary land
univers al
con crete
bass ador
ha ust
B ureau
H z
bur ning
Eli za
id i
p ig
l ane
Sy d
C ould
g if
Mur ray
Ac cess
art ific
sub mit
Philip p
e quality
hoc key
h ire
ha ul
man ifest
def icit
lo go
sw im
ho ok
c uss
v it
Har vard
R s
cap abilities
B eng
m useum
C ase
ul us
polit ically
mo ck
afford able
Olym pic
y l
As sem
M ach
There fore
trans it
Mor ris
j ok
press ing
in ction
hop ed
bon us
b ors
mechan ism
war s
critic ized
tip s
compreh ensive
kil omet
Sim on
An na
univers ities
sh ops
ic op
min i
sem i
V ice
en ix
p ill
Bud d
ut ed
N ev
H ad
v ous
propos als
K a
um es
hero es
ox y
Ham ilton
V ill
Oklahom a
comp are
po cket
ve t
cl ude
supp lies
U P
request ed
popular ity
at i
target ing
Bel g
ber ry
predict ed
U ber
satell ite
m ans
pres idency
st atic
Down load
con trad
se ctions
rep lied
insist ed
ile y
Un til
pre sum
Qa eda
Con sider
t ens
Ul tim
Cap ital
Mic hel
lo ose
land scape
L t
he im
an ne
cent ers
ial s
Ch ange
cour age
re verse
br illi
program me
document ary
Ar k
u plo
entit led
sen ator
199 1
dro ve
li b
e ign
sh ame
ok ay
ch icken
f ate
R ap
g ross
More over
retire ment
dis missed
Bat man
ab road
si ans
bank ing
month ly
B ible
surv ival
T ax
object ive
chan nels
ct r
Tr ade
stre aming
Ed itor
D og
} }
re call
p ics
wind ows
B lock
con front
pop ulations
mo du
A ward
Rep resent
ur ged
question ed
M C
Off icial
r ations
Pro du
arch y
cir cle
e ing
when ever
Cap tain
testim ony
congress ional
K E
veter ans
Fr an
R est
viol ation
quot ed
foc using
ag a
Char lie
Le ader
remark able
point ing
rele ases
B L
modu le
qual ified
step ped
Viet nam
" >
L en
ob s
kne e
th a
if er
che st
prison ers
D ur
tw ist
P ier
inch es
e e
w ider
ass igned
spokes woman
ult ane
H ong
ex haust
tact ics
out rage
sal t
ik a
pursu e
Sci ent
cr ush
Scott ish
aut onom
B R
vo ices
restaur ants
C ro
t ables
anx iety
wealth y
archite ct
ar bit
ir ts
entre pre
pipe line
acc us
thor ough
19 50
exper iments
il i
ack ing
Sto re
be ating
W o
propag anda
F lo
he m
to wer
re sem
R ac
ten ance
Dr agon
c m
i ro
Cr ime
Syd ney
S av
at re
rating s
ac re
B ag
maintain ed
er al
v ig
organ ic
Bu y
design s
demand ing
j an
un expected
H ub
Spe c
represent atives
harass ment
den y
Cl oud
produ cers
rank ing
investig ations
T ai
approach ed
st ability
n ie
Mar x
Au to
roll s
F red
In stag
M organ
od ds
child hood
mort g
T ER
rel ax
A bu
usal em
log ical
sub mitted
Ten nes
Ber lin
d ying
g aining
Gul f
Matthe w
d ot
D ick
sustain able
Ros s
legisl ative
err ors
c am
Re cent
saving s
pick s
Naz i
K ick
om s
me al
athlet es
dead ly
H O
Jer usalem
in ser
ene z
b ian
civil ian
IC E
fact ion
consider ation
str on
smart phone
over seas
repe at
k ers
prepar ing
Dig ital
N a
celebr ate
land ing
sure ly
Instag ram
eder ation
ash ing
ir a
host ed
surprising ly
phenomen on
O thers
gener ations
Haw ai
D ate
pick ing
argu es
ann iversary
fa ult
cop e
dis order
pers u
B ri
p son
col ate
es cal
ent r
broad er
argu ing
clin ical
or ious
c ure
Gr ant
J enn
ath ers
tra it
health care
fortun ate
Or der
ou ri
re forms
s ized
Rus sell
reve als
M I
E PA
Pro v
sto red
op ens
box es
im posed
execut ion
real istic
bi as
dom inated
ass ass
d ating
sil ence
co operation
re plic
p uzz
trem end
house hold
at ar
M ail
hop efully
i que
cit ation
h att
S N
cal m
H on
ton ight
instruct ions
gen es
round s
gather ing
archite cture
sort s
19 th
Tr ust
d in
e u
Ar sen
Palestin ians
dist ingu
prosecut ors
ash es
cons ent
tort ure
S ud
Eliza beth
Assem bly
a us
po ison
analy st
B urn
different ly
ast ing
et ers
olog ists
Y emen
J en
j s
R ou
P ubl
but ter
Thom pson
ML S
news letter
j et
net t
des erve
tr illion
diffic ulty
D V
Al an
categ ories
Oak land
Th ird
ost er
dri ves
A aron
Man agement
assu med
Mo ve
promot ing
a ire
emer ging
b orders
inter pre
row s
j un
ar c
expand ing
Her o
W ol
f ers
198 9
ro okie
is ons
demon strate
ship ping
great ly
Come y
dial ogue
sh er
ar ity
ah u
precise ly
ge l
p g
B B
strugg led
dam aged
tri als
th ood
important ly
bo ther
Gor don
su perior
sim ultane
P ers
ent ity
reci pe
contribut ion
stay ing
che ese
ann er
Execut ive
where as
o id
cere mony
c iting
con str
ut en
T ON
b is
man aging
in su
proced ure
award ed
don ations
stop s
high lights
econom ics
ish op
mag net
iz er
desk top
dr one
He ll
phys ically
sm ile
W i
B ased
want ing
ut ility
es cap
Y a
And y
st ere
le ans
A ren
a er
occup ied
Wal es
indic ates
domin ant
gr ave
3 60
Mo del
follow ers
contact ed
meaning ful
mo val
st amp
ac o
ther apy
Add itionally
enthus i
fin ed
cons ensus
strateg ies
execut ives
X X
ark s
playoff s
r ab
Tennes see
g ut
check ed
{ \
wor n
fac ilit
old s
Further more
Har per
mig rants
T ext
particip ation
H art
educ ational
Co oper
S ess
back ing
For m
gen e
moder ate
lap top
implic ations
Le vel
om ed
lab our
rac ing
spect rum
trans action
ange l
B ren
guid elines
C el
apol is
ress ion
wound ed
plan es
Liby a
clo thing
Y an
t ube
attract ive
post ing
C ra
b un
cent uries
minist ry
Kent ucky
en abled
compet ing
capital ism
sub stance
uck s
mem or
address es
frequ ent
Econom ic
il a
set up
enh ance
speak er
Str ing
C lear
il der
Aff airs
S ex
foss il
pass age
cent s
al er
ul ating
t ired
Co le
bott le
Pho enix
vertise ments
eas es
Chan nel
port ation
the ories
mem ories
pack ed
in tellig
open ly
ma x
invest ments
Th er
represent ation
char ity
u th
integr ation
endor se
pen al
Tr ue
Fest ival
perce ived
disput e
preced ented
mus cle
Pent agon
Ex pl
vari able
cust ody
present ation
h unt
ist ers
R i
W AT
Pit ts
swe ep
an no
F S
n in
psych ological
Sub scri
Li brary
sign ature
4 th
G DP
ig ate
stud ying
char ging
publ ishing
regul atory
batt les
def ending
fill ing
six th
sha ped
search ing
om er
An ti
food s
ho o
F uture
k g
uni form
N el
L es
ar ter
sover eign
suspect s
cu red
gen re
T i
bul let
fab ric
recru it
sk ip
cast ing
res ort
surv iv
be ach
e ager
Je an
grap her
conscious ness
c ot
dro pping
k itchen
W ord
dis agree
t ut
ph arm
Do ctor
stat ist
cor n
poll ution
for um
al t
tim ing
modif ied
jud gment
man agers
B and
fight s
under lying
E xt
coach ing
appe aring
being s
Arsen al
P aren
B os
div or
un precedented
discuss ing
ito l
re ction
mo od
W on
D or
di am
Sto ck
impress ion
adequ ate
punish ment
P ut
gl ad
E A
m ph
wal ks
subscri be
princi pal
ridic ulous
tal e
ri ors
O cean
AR T
m ice
host s
arri val
prefer red
cre atures
land o
R ome
col our
f ires
Jere my
engine er
H app
O l
1 30
Del hi
hom osexual
s ke
pul ling
the ore
st ig
A B
proced ures
wh is
mar ine
br ush
T el
bi ological
extra ordinary
hel icop
ag u
fo ol
K han
scr utin
Char lot
ic ations
Mont real
engine ers
ad venture
sl ide
indust ries
re bels
ach ing
cogn itive
F ant
require ment
ag r
dis eases
igen ous
reser ved
li est
Ar m
S L
as set
W olf
ke e
c ott
n od
se gment
V en
ac on
Tes la
Contin ue
lo ves
em bed
sac rif
per ception
inv asion
B es
rhetor ic
fat al
hosp itals
do se
top ics
P L
expl aining
tren ds
nation ally
Re agan
N av
scr atch
Brook lyn
tow ns
band s
9 00
restrict ed
p our
inter action
T w
C reat
block chain
Ed it
US T
cli p
Co al
f et
car to
eng er
Un ivers
talent ed
hang ing
re cept
acknow ledge
sess ions
In dependent
W inter
** *
re moval
dis miss
author ized
bill ions
part ly
sign als
Or lando
G ab
ang ed
O tt
g ence
P T
ian o
T ry
command er
ple ased
sho es
R ound
Look ing
every day
par ad
no se
rang ing
g em
Inter est
ev ident
V ery
shock ed
oper ated
over come
r ice
fle et
conv ince
Anton io
advis er
eg gs
pri ze
Cra ig
bad ly
period s
Ob viously
M ind
requ iring
exer c
ab str
post er
Res pon
com ics
Ho ly
ik i
compens ation
check ing
w et
brilli ant
tr action
Cl imate
C as
N u
mon s
don es
Ab d
J un
twe ets
Ad ams
streng then
V enez
S cal
icip al
main tenance
lif etime
M as
refer ences
associ ate
conce pts
US B
T am
weak ness
out lets
line up
id en
deploy ed
sent enced
crit er
Psy ch
B N
ag ger
C lar
e lder
am endment
b iz
N on
block ing
inquir y
Fil m
W right
x y
dre ams
ye ah
A y
ji had
cycl ing
in ity
… .
Ar gent
pleas ure
out ed
ill er
S EC
myster y
Miss ouri
sn ap
pri est
elim inate
Se ction
it ure
kill er
dis appointed
hib ited
anony mous
pro vision
or ous
Sp ir
not able
occur s
analy sts
sty les
F ile
c ats
dram atically
dead line
s its
ur b
om an
B an
Pl ace
Dre am
Venez uel
Christ opher
Cr it
T a
ad vent
Sher iff
phys ics
Per ry
Are a
P ow
u ment
car ries
conven ient
ins ight
inst ances
un ve
collabor ation
revolution ary
inste in
ine quality
encour aging
pre c
In dones
og en
review ed
1960 s
diplom atic
be e
C li
shel ter
paren cy
autom atic
che aper
artific ial
approach es
Ste el
Hit ler
neigh bors
dr um
Pitts burgh
D al
With in
J ane
c s
s ive
Du ke
Offic er
tr aged
construct ed
constit u
F a
prompt ed
Be ck
ak i
m ud
too th
tr aff
Ste ph
N ob
birth day
se ized
in spe
Ste p
stri p
Tal ib
Com put
occas ionally
viol ations
assem bly
interview ed
Dri ve
aim s
Mar ine
W W
dis played
Res erve
S ac
config uration
con temporary
A w
interpret ation
M R
employ ers
design er
sold ier
Java Script
deem ed
paralle l
witness es
st om
Prote ction
integr ated
Nev ada
land ed
Man ager
Rob inson
pod cast
beat en
S port
u an
under ground
be lt
bag s
d io
Stand ard
d ia
s ink
mo dest
-- -
acc um
gr ades
communic ate
t ier
recommend ations
Copy right
speak ers
kn ife
An g
resol ve
def ender
G ro
Fin an
explos ion
regard ed
wed ding
O il
hun ting
Le ban
B rew
voc al
sp onso
p ens
sa v
tain ment
sponso red
iz za
xt ure
sil ent
sop hist
ac compan
prospect s
re cover
A br
promot ion
ric ane
Author ity
oc a
haw ks
ap ore
w ick
manufactur ers
peace ful
con vert
pregn ant
guest s
ca ution
do s
demand ed
kick ed
mon ster
li br
Sm art
minim al
regist ration
end ar
sp her
Stud ies
Com mer
ri x
Sm all
in corpor
less ons
ip s
li a
travel ing
Jer ry
ut er
F ight
ob st
l one
on ic
do ctr
cre ature
fol k
ric ts
de cor
21 st
elect ron
concer ning
maintain ing
S po
) <|
Fl ash
philos oph
exist ed
can cell
av ed
isol ated
ingred ients
sum mit
C old
ch ronic
let on
to ss
f s
cre en
bur ied
Al liance
stead y
ak h
volunte ers
inter ior
S ad
cred its
th ri
conf ess
C lo
st ats
organ isation
fe l
less on
bur st
J S
": "
profession als
Un i
che ll
cou ples
K ings
Over all
t une
st ating
se cur
ar re
Sing apore
crim inals
D I
pe er
atter ed
op pose
emot ions
e z
I sa
col n
s ne
V ar
bour ne
Ste wart
key board
jump ed
a thing
decl ar
E mer
conf used
Dr ug
sh ed
girl friend
emphas is
D B
ol ly
advoc ate
E ffect
ix on
brut al
imm une
K al
milit ants
performan ces
ag en
is ition
W R
refuge e
b om
10 1
um in
bureau cr
tra its
Lin coln
War ner
ref ers
n is
V lad
W y
pro be
integr ity
Py thon
exam ine
sme ll
S team
Cap itol
desper ate
t ension
Ukrain ian
Chair man
und ers
P H
nat ives
bet a
al ert
oppos ing
Treas ury
Mod ern
no de
P ope
prof ound
eng agement
a ired
De ep
f ier
re es
descri bing
ac cord
ay a
journal ism
F if
eng aging
em a
B Y
ind er
H ung
P O
d an
Or leans
inspir ation
ac les
elect oral
g ust
motiv ated
re called
fo x
fig ured
A K
ide ology
Gr ay
Com ple
surround ed
bit ter
pack ages
Subscri be
bass y
exp ense
let ed
D oc
b ie
en su
3 50
com promise
bre wer
is k
de light
198 8
og a
loy al
Pol and
contro ller
ot ing
mir ror
go v
sol ved
consider able
choos ing
hol der
inst ant
spons or
pr ide
Ch rome
C T
tremend ous
gr ace
iz z
le e
rad iation
moment um
close st
Q L
execut ed
tor n
tee th
N ik
i Pad
Ne ther
He art
hatt an
Z im
Res our
K as
G R
Pro gress
Talib an
E th
rob ust
rout es
ens or
embr ace
team mates
S top
N ich
re moving
exp enses
Jim my
H amp
c ake
od ed
ad opt
contr ary
co sm
DA Y
Ott awa
bomb ing
ay ing
Ob ject
mathem at
V ik
e h
at ivity
bal anced
MP s
m ouse
guarante ed
S ul
strugg les
M om
Sum mer
p ad
sex ually
cur ious
occas ional
s lot
Ex per
passeng er
P ir
accur acy
om ing
pass word
Sy n
re con
F R
E V
Gi ants
d iction
Enter tainment
H ans
Man hattan
ep ic
Con vention
educ ated
ut ies
C la
o ke
subsequ ently
exclus ively
198 4
produ ces
fl our
eg g
Al aska
night s
wonder ing
Lu ke
just ify
cha os
ref use
har sh
ner vous
br ands
L aur
brief ly
a a
v ens
igh th
influ enced
now here
don ors
dist ricts
l ens
path y
form ing
Lar ry
Mar io
U E
18 0
C le
for gotten
minist ers
challeng ed
surv ived
run ner
Finan cial
Que ens
Cit iz
p ical
Victor ia
L L
T ower
rup ted
accompan ied
Hist or
court esy
conf usion
character istics
S ide
Im ag
asy lum
cert ific
in ject
Egypt ian
dr afted
re bel
game play
equip ped
it udes
Build ing
ip edia
bor ne
camp s
du al
bas es
tre as
R angers
Hu gh
k iss
Canad ians
c abinet
r ug
N iger
impress ed
198 6
S ter
ne o
Ass ist
al ign
al liance
anim ation
Mod i
op ol
re ll
v as
H IV
h ub
att ending
Stan ford
HT ML
eng ines
def ended
Conne ll
ri k
co inc
le aked
ign or
D ak
jur is
c ies
D J
pat ent
Bl ake
R ow
Nel son
Some thing
the ater
Wik i
susp ension
Rub io
concer t
re bound
Rus sians
im a
spec ulation
P ear
edit orial
burn ed
P P
ke eper
Louis iana
out comes
h iring
A G
li hood
pol ar
W ant
trail er
hand led
M oney
c ous
ia h
ra ises
cre ator
Snow den
compat ible
F le
occup ation
ó n
fail s
Blo od
b ump
id em
pl ates
P ok
W I
12 5
Play Station
vol unt
R aj
ident ical
V ers
intim id
sur ge
sing er
C her
P as
G on
Q ual
j unior
Ne il
vari ables
evol ved
Ham as
Way ne
bacter ia
print ing
T an
bank rupt
te x
N ature
j ar
part ial
re covered
ev ac
d irty
v on
sol o
---------------- ----------------
Be at
ack ed
cast le
Bet ween
ch i
Stan ley
fl ights
St aff
M other
flav or
research er
ER E
mo thers
vis its
light ing
in cess
Wh atever
De an
qu ake
bre ast
invest ed
develop ments
oper ator
( '
repe al
simultane ously
dest ination
attract ed
fing ers
M and
rest ore
J ess
exam ined
promot ed
r im
to ll
der ived
prov ider
con secut
g arden
il le
taxpay ers
hor izon
Tok yo
ÃÂÃÂ ÃÂÃÂ
Col lins
st an
Mo de
inter n
tar ian
E s
L ess
14 0
le ak
alter n
t anks
Mur phy
he t
ant ib
ow ski
vi able
sc ared
Post ed
B ra
privile ge
l as
N ash
organ is
RE AD
G ill
met ers
wh ist
dis abled
sa ke
G ard
d f
in fection
U ser
pl er
dress ed
T oy
rele asing
O t
Tre k
decre ase
r ous
u f
col leg
dest ro
C ut
contain er
bow l
ben e
Cor p
concent ration
N ative
H R
reg ret
tem plate
le ep
al ys
Ch ron
Ed ition
Nether lands
y r
agree ments
p ub
Con t
che mist
bab ies
impact s
sha ke
v or
feed ing
m ant
te ar
expect s
an thro
athlet ic
respect ive
Kur dish
expect ing
Be yond
oph ob
lyn n
Pr int
Num ber
transfer red
b art
" ,"
I an
stop ping
tele phone
trans parency
ate ful
Rog er
bl amed
f ishing
depart ure
ke en
politic ian
vi br
P or
bre w
algorith m
inev itable
d d
confl icts
function ality
th ur
Ep is
ab sur
sub tle
W AS
life style
criter ia
aw k
mind ed
Medic are
explicit ly
l ake
im prison
an es
dro ps
nation wide
dim in
bu ff
B P
occas ion
M is
investig ated
dam n
Nob ody
u to
fin ite
S of
im ir
ter rif
fuck ing
back up
At tack
form ula
house holds
deleg ates
YO U
re act
bu gs
entr ance
el ab
Environment al
glo be
C os
comp ound
Sha w
uncertain ty
in aug
legit im
es a
influ ential
Any one
p ix
satisf ied
det e
Ap pe
app lies
Ph ys
ern and
K it
ste al
G ib
d il
con fron
Al ter
Pe ace
cir cuit
cook ing
DV D
sen ators
R ain
p per
r hy
Olym pics
Lad y
S even
ab o
sole ly
launch ing
F ro
wr ap
ip pi
calcul ated
ades h
Philipp ines
Mot or
kid n
Mal ays
lad y
C av
consecut ive
c ave
Orig in
dis cre
cour ses
convict ion
po et
cho colate
re su
ing er
198 7
rel uct
. ]
Man ning
E le
Ex press
il ater
gy m
sec ular
ll or
roll er
wor ship
re cession
c ort
lux ury
( );
ol ars
Play ers
bul k
head lines
trad ed
id al
similar ly
Cap tion
B log
pro visions
happ iness
A long
S aint
Or ange
pres erve
? )
bl ast
gh ost
Again st
c ulation
Le ad
om a
rid ers
compe lling
p ension
198 5
or ange
det ention
Ber ke
traged y
inter cept
pain ted
ri vals
wire less
Medic aid
se min
prosecut ion
lay ers
Wh it
Ch ampions
W ard
guid ance
Mar shall
unt u
Ch all
16 0
absur d
off s
amp a
mal es
com position
j am
s ar
aw ful
g olf
Hun ter
bomb s
photograph s
indic ation
U PD
experiment al
out standing
Bro ther
Tod d
n it
accept ing
lo ving
prosecut or
n ull
Corpor ation
). [
host ing
ass ert
cr uel
man ual
pra ised
ag ic
prem ier
assum ing
ck ets
Pat riots
Miss iss
su ck
exc use
G ate
cross ed
Hamp shire
Fore st
Organ ization
te ars
K in
? ’
reflect s
supposed ly
ach ment
Y ang
Bloom berg
jud icial
Reg ard
pol ling
particip ating
Ch ang
innov ative
renew able
s ion
Tai wan
V M
resident ial
bene ath
view ing
intellig ent
ac ular
spec ified
Se lect
L ie
o z
de ce
D enn
Spe ed
Fer gus
ol as
b und
miss iles
th res
appro ve
sust ained
uck er
res erve
project ed
In tro
oper ators
liber ty
he y
iz ations
Ste in
r us
avail ability
P od
s lip
cross ing
enc er
neighborhood s
depend ence
compl ained
ol dest
mand ate
197 9
R ab
ber y
see ks
be an
fin ishing
Current ly
r c
in box
wis dom
advant ages
viron ments
As ked
~ ~
dis rupt
aw ards
de fect
S F
Al most
signific ance
possib ilities
H us
cons ists
mortg age
S ong
car rier
─ ─
Camp bell
s ic
immig rant
prevent ing
Air port
um ble
D ue
cre ep
Mel bourne
sophist icated
P interest
do ck
He at
resol ved
administr ative
gold en
port ed
thod ox
re fr
win ners
un fair
” )
Mit chell
cop s
ass ists
th umb
accus ations
Mississ ippi
occas ions
print s
document ation
advis ed
ambit ious
tr ains
del ayed
Swed ish
u ating
B ear
H ann
earning s
spot ted
chemical s
icon ic
U D
instru ment
b ones
So on
Ar thur
d ar
affect s
b icy
myster ious
IS T
respect ed
favour ite
Br andon
conver ted
build s
30 s
Common s
ad vertisement
S car
long time
Sess ions
speed s
un fortunately
R h
pain ful
au x
ham mer
in trig
sleep ing
Sing h
cle ared
er up
tri ps
Polit ical
design ated
anticip ated
E qu
Berke ley
to bac
Moun t
Re id
ite ment
5 th
devast ating
H old
Y u
spe cially
Ky le
b age
C row
rob ots
explo it
p ending
ab und
imper ial
B aker
Mc Donald
inter act
Ar ts
rad ar
sent iment
inter actions
cat astro
predict able
Spe aker
Spir it
pan els
Cub a
F lynn
pr icing
F ather
Saf ety
t issue
H i
C I
g inal
iff s
assu red
fin als
Hawai i
H uff
p her
ro d
reven ues
world s
ch amber
Sen ior
am ine
er g
Net any
h iding
d ensity
hor rible
p lead
enn a
in car
sel ess
publ isher
kill s
separ ated
deal t
ur an
discipl ine
Park er
Ben j
ed ited
K n
Law rence
not ably
S earch
cont ents
femin ist
R ud
m are
Wat son
Mag azine
S M
i ac
An t
en vironments
psych iat
Mor ning
Abd ul
I l
In side
Congress ional
me ets
De b
IL L
comb ine
cur ve
Con tact
product ivity
Ar ound
rough t
transl ation
de cess
il ation
Br and
Mad rid
Nat ural
L ions
w and
display s
In di
Aren a
ug ly
od ing
Eag les
libr aries
C over
su e
fil ing
t at
pregn ancy
param eters
to ken
re ign
vacc ine
safe ly
anony m
P s
Pri or
ste ll
Ox ford
comm ands
? <|
Netany ahu
B un
be ef
ce iling
Vlad imir
Camp aign
murder ed
ali ke
UR L
address ing
un comfortable
D od
har vest
lon a
bo o
G ri
st ones
nut r
ex hibit
P AC
B uck
Post s
by n
Coal ition
sh ine
pre decess
ag rees
pra ise
collect ing
D omin
reci p
ad option
an arch
in fer
Ne ed
eth ics
w ore
aren a
H ide
arrest s
park s
gu ided
roy al
G row
int u
is ive
C u
rit ual
sum mary
news letters
scrutin y
sp y
attor neys
over night
start up
s word
pro sper
H end
co c
gent le
Fergus on
depart ments
install ation
hack ing
compet itors
H ond
Te a
qual ify
reflect ed
Leg isl
int ensity
T ol
Cr im
them es
newsp apers
licens ed
mun icipal
CP U
il st
Bar ce
r ons
o ch
To o
Mil itary
F ederation
back er
argu ably
part ially
S ave
Mar c
deser ves
R av
Oc cup
Ad ded
ce ase
P ed
trans parent
d or
H E
ens uring
im pose
re wards
ag s
oxy gen
F ast
Christian ity
con ced
al pha
des ert
f ut
d uties
complex ity
question ing
T D
be ars
Ev ans
ID E
among st
host ile
bath room
employ er
the ft
expl oring
S wit
shoot er
ret ro
Gir l
celebr ated
trans mission
table t
prepar ation
quiet ly
o sh
suggest ions
Similar ly
R ice
d ive
orient ation
stere oty
Ch uck
Benj amin
B run
ver ify
rel atives
if i
Never theless
Ter ry
Mem bers
Ch en
st ir
m ask
F act
oper ative
Book s
Kick starter
bub ble
supp lement
Barce lona
i ate
p ink
fire arms
limit ations
t z
Imag ine
remember ed
se eds
se cured
FC C
pow der
NC AA
Ch ance
k ar
p ist
10 th
C BC
pray er
um ph
cor rupt
Not es
i ke
deliver ing
Record s
R ail
Pro test
mechan isms
pro pri
Ros en
ari os
A wards
i ere
dis closure
S QL
Ne ither
sacrif ice
gr ants
r ust
inter ven
process or
Commission er
pl edge
Le aks
AC T
d uration
honest ly
cult iv
D M
M ul
buy ers
scre ens
ur l
Me et
demonstr ation
am an
chip s
det ained
sl am
y er
pe g
clim b
comput ing
g le
viol ated
f urn
mar ry
Ad vertisements
re placing
deb ates
Ab bott
comment ary
ra id
b ast
K h
Event ually
Ser ver
bor ough
ser ial
appoint ment
ist a
act ress
stress ed
detect ed
t ends
Cor ps
Invest ig
S R
PD F
am bassador
Te ll
Sw iss
WAT CH
mar ginal
Ke ith
Col um
NE W
tobac co
count less
Ret urn
techn ological
D ro
expl oration
Co hen
ar mor
dis closed
grad ually
dis appeared
poor ly
orient ed
com posed
enter prise
Ker ry
K rist
E lection
fr ank
clud es
highlight ed
D est
per mitted
P ath
z es
AT ED
/ .
ha i
Ok ay
ac ies
n asty
L or
en ess
sing ing
witness ed
shock ing
dist ant
cro p
qu ery
cons ol
In it
ann ually
off season
Bar ry
pen et
Dr aft
suit able
seven th
observ ations
adjust ed
B ah
con version
heart s
b ark
z i
mean while
ran e
t ill
Indi ans
met aph
Chap ter
c c
s izes
biz arre
load s
bon ds
S hel
G L
frust ration
cle ver
Br us
D om
S ay
s killed
Me thod
fr act
For ces
af ting
stun ning
m g
ath on
Tr ude
cl ing
pleas ant
last ing
J a
Pro duct
com pos
Up dated
agric ulture
d ys
un ited
T ampa
lon gest
ob sess
suggest ion
load ing
1 15
lo gy
distur bing
inst antly
d ra
b atch
er to
b ally
moun ted
prevent ed
found ing
fac ulty
Mad ison
flex ible
J ake
travel ed
ig a
drink s
Swit zer
L an
c ence
fasc inating
Buff alo
cap ability
Mc Connell
elect rical
198 3
ent ities
determin ation
wr apped
partic les
u ates
cont am
Sol ar
Hot el
K ath
ON E
al together
st airs
capital ist
proto type
cal i
suppor ter
Dep uty
gre et
op les
z omb
vir al
P ul
infect ed
sla very
B ou
respond ing
pat ri
fle w
Lo ck
. ),
dr ome
Stor m
respond ents
un necessary
awk ward
place ment
198 2
dist ort
Kir k
ess ay
advoc acy
end less
M aine
arbit r
protect ions
Que bec
com pr
Friend s
met ro
re actions
Trude au
Dou g
app lying
anim ated
grad ed
reve aling
O C
Jac ob
b une
lin ing
K ay
bre ach
R aid
Medic ine
dr ones
un lock
tr ap
cal endar
b ay
quant um
sa uce
N R
U A
EM ENT
} ,
we aken
celebr ation
oper ates
confirm ation
M itt
gram s
bl own
Gu y
fast est
clin ic
E E
Mar co
F ul
quot es
Dak ota
n aked
L uck
J ar
presum ably
d ale
T reat
div ide
O M
understand s
Rob in
Bes ides
C and
mer ch
g ard
ac res
cap s
R ank
cir cul
Christ ie
complet ion
accompl ished
Bab y
l ung
acqu isition
con st
ail ed
d ip
truck s
R io
tr ace
match ed
Frank lin
stron gest
mechan ics
ch or
ors es
K am
prob ability
compl ain
contro lling
Albert a
dig it
wh ites
alys is
wel ve
bu zz
Qu ick
cir cles
Ty ler
citizen ship
B ot
ide ological
M ission
U b
curren cies
to s
lift ed
app le
de voted
histor ically
Em ploy
def ic
direct ors
l ord
add iction
Fix ed
T IS
Commun ist
g ments
foc uses
expert ise
high way
al arm
F u
assum ption
pay s
comp liance
Coun try
ins ane
H ud
D anny
bed room
lan es
Cent ury
Lyn ch
human itarian
M aking
ex empt
An ne
ed iting
Switzer land
W AR
trans formation
g t
sp ur
Pr im
z ones
re ver
os is
Turn er
Tem ple
accept ance
ep idem
mand atory
Ya hoo
v ague
rot ation
St ars
invest ing
Wik ipedia
Ar ctic
gr ateful
F ried
P ick
hy dr
emer ge
T L
pe pper
N PR
Rog ers
p ione
d ign
cult ures
augh ters
Oper ation
Mar ia
Univers al
ped est
M ol
audi ences
F em
a es
clud ing
achieve ment
F ab
social ist
ato es
E lement
frust rated
conclus ions
sc ary
sa fer
oper ational
W WE
Read ing
90 s
f lip
po le
contribut ing
c odes
Jeff erson
agr aph
agric ultural
render ed
pict ured
ow ing
dis patch
dr unk
ail ing
U pon
Tit le
Stud io
Rel ig
res idence
des ired
break fast
sch olars
penal ties
S pot
oc key
coordin ator
motiv ation
are tt
tre ating
Re ferences
explos ive
pro hibit
il legally
lin ear
c ub
mechan ical
volunte er
S aints
willing ness
p ets
to ile
res ur
bound aries
conserv ation
qu o
h ier
fo ster
cro ps
fr ight
over sight
c af
ve gan
Gu ide
O scar
dict ator
gro cer
F E
rock s
experi encing
coun ters
cr ude
just ified
Liber ty
F arm
equ ity
M ust
Z ero
thres hold
ue z
trust ed
Brad y
che er
F isher
m atic
Bet ter
enh anced
bor ing
ll ers
Sus an
direct ions
tou ched
Pu erto
d ess
ris on
pro li
ter y
colon ial
C AR
F DA
conduct ing
an te
th s
Har vey
grav ity
or ph
S pur
techn ically
Lu cas
count ies
tut orial
hy brid
Colum bus
wind s
flo ating
passion ate
stom ach
e or
sent ences
b ite
ou ter
fro zen
rece ives
loy d
glass es
enjoy ing
mag ical
Brus sels
condem ned
dis gust
Get ting
ur ge
T on
form ally
de pos
UPD ATE
z ip
deliber ately
t ub
attribut ed
mon etary
rep ly
L iving
su prem
sp reading
… …
198 1
fan cy
eco system
ar do
dia bet
Fant asy
mob il
AM D
lay out
ab sent
rif le
flu id
lif ting
c ab
ex changes
i pe
>> >>
mountain s
former ly
excess ive
Inde x
D if
Rod rig
hab its
dist inction
hat red
bind ing
H unt
text s
le af
Cam bridge
J oy
ho ly
flex ibility
re hab
manufactur er
L ED
Pl at
struct ural
N ep
trigger ed
H ack
le ap
A RE
initi atives
tr ash
Cor byn
Conserv atives
Wor king
ist ani
Part ners
w reck
reser ves
p ile
eval uate
aw l
account able
scen arios
enn y
met er
regul ated
H om
ik h
Tal k
fin es
tr apped
G ive
pe ers
space craft
ste am
Nor way
res igned
Hol land
h ence
dis par
P red
Cir cuit
S I
is lands
shif ted
gl as
Wiki Leaks
non profit
sh irts
" [
list ing
subsid ies
Th under
it ative
Col lect
Bar bar
Val ue
rum ors
her itage
R B
prior ities
W iz
church es
free ly
sh orter
A th
ch op
n t
ish es
Cre ate
acqu ire
fit ness
s li
su ed
ident ifying
t ong
fin ancing
tun nel
neg lect
reach es
Charlot te
difficult ies
ob by
jok es
il and
ol i
ev ed
decl are
deploy ment
lo d
let t
Co ach
IR S
crow ds
We iss
wal let
h oney
UT ERS
provin cial
inter rog
elder ly
ag greg
W N
Un it
legend ary
particip ated
cr ying
qual ities
mi xture
invent ed
Venezuel a
sla ve
mut ual
harm ful
be aring
flow s
l un
RE UTERS
gr im
diagno sed
ri or
spect acular
on a
B ears
O liver
it ting
af ts
█ █
pled ged
be tr
to k
Ark ansas
alter natives
Pol ish
War riors
port ions
econom ies
stock s
no v
fr action
di ver
Mer kel
re tri
u ing
whist le
w ings
consequ ence
D evil
inst inct
br ains
ref resh
Pr om
click ing
Ter ror
10 5
optim istic
attend ance
Cal if
P ence
indic ating
D NC
? '
P ep
vert ical
aff air
P E
B io
tempor arily
teen ager
fier ce
sk etch
fe ld
button s
s ends
ment ally
Q B
20 s
green house
ed ges
por n
Ub untu
ab ling
ino sa
dist ress
knock ed
12 8
flag s
design ers
pre val
declar ation
be loved
r ors
Ver izon
contin ent
inc in
C lose
instru ments
un fold
AD VER
nat i
K le
Photo graph
emp ire
f ict
m p
ident ification
wel comed
L ost
Hel lo
T ig
dam aging
edit ors
ex ports
a is
t ensions
cycl es
inning s
ic iary
Car son
Shad ow
AT ION
M ason
at ile
Mor mon
Gl ass
ch en
port fol
eth ical
sup pose
exc itement
P ap
Brad ley
destro ying
B JP
vis or
rush ed
Sel f
fit ting
Pet ers
c ad
ul pt
traff icking
ADVER TIS
throw s
In cre
indu ced
E ss
hop eful
execut e
ref using
E ither
Vir t
rom antic
col og
C ass
dis k
stro ke
C ree
Pak istani
p act
remind ed
s ie
Th r
head line
appe als
negoti ate
carto on
imm ense
shr ink
arett es
ess ence
John ny
Mar cus
el ic
tribut e
196 7
d b
bol a
avo ided
br ick
shif ting
G arden
Cer tain
minor ities
be y
ind ict
M ort
announ cing
back ers
connect ing
p ants
t ang
ap pl
liber als
ctic ut
embed ded
Conne cticut
imag ination
res on
clean ing
Wor ks
br is
path s
parliament ary
C incin
Won der
H ope
R ush
ch ains
dec iding
end anger
A my
Th or
in spect
sens or
Mu ham
Pri ze
pre lim
Sof tware
Gall ery
olog ically
n ons
l aser
off set
ilater al
cl uster
y le
war fare
c ache
grab bed
ad mir
gam ers
Mc Car
tend ency
continu ous
Prof ile
Sp ider
secre ts
au ction
Pict ure
S W
bu ffer
rel ate
D ub
ear liest
Tri bune
V eter
Sh op
ac er
C lean
ri el
Hal f
Al pha
bar rier
pure ly
bar riers
Michel le
gr ay
valu ed
J ets
tourist s
st a
Re ally
W ire
Ser ge
stab il
observ ation
te ens
on ia
tradition ally
hack ers
favor able
hum or
T u
Ap plic
de struct
G host
defend ers
approach ing
purch ases
Mem orial
there by
Sal t
gener ating
direct ory
spark ed
196 8
C F
un fortunate
wa ited
thir ds
m all
gover ning
G ay
transl ated
gr ain
colle ague
Stud ents
Commun ications
surviv ors
plan ets
colleg es
pl aint
law ful
Cincin nati
min es
institution al
197 5
organ izing
ch ampions
w au
under mine
ker nel
n ik
al ia
met ric
Is lands
pur suit
Uni verse
Indones ia
gener ous
K ind
believ ing
Tar get
L ay
G rif
N athan
Tr uth
imm ers
soci eties
197 6
econom ists
Ro om
C rown
R ace
t ender
per or
wish es
Dou ble
Jenn ifer
7 th
comp iled
alter ed
sil ly
Dou glas
last ed
att itudes
197 3
to y
dis pos
compar able
D ow
M ember
Le af
sens it
pursu ing
Belg ium
======== ========
g ul
grow s
M MA
ac commod
d aughters
infl amm
te es
legisl ature
H indu
dr agon
AC K
Islam ist
str ain
suspic ious
c ensor
conv inc
divor ce
be it
list ic
gen et
in sect
dec ides
chemist ry
sh y
Lis a
bott les
M ig
den ial
is sa
we ed
treat y
rush ing
collap sed
don ated
break down
par agraph
fail ures
Pok é
remind er
Gon z
F ly
fl esh
bre athing
K K
regul ators
mill enn
Ver mont
class ical
80 s
g ly
cred ible
W oman
N ex
ul ative
d ash
Year s
El sa
W alter
U M
pre ference
b oun
] :
Con tent
Ron ald
B ash
helicop ter
termin al
Argent ina
draw s
succeed ed
IV E
Kar l
gif ts
tri umph
T T
wau kee
str ings
Sh i
emot ion
S mo
cy c
tr agic
king dom
Gold man
d irt
conven ience
ele ph
dem ol
ch es
contact s
magn itude
bert ies
wrest ling
elect ro
m ild
mass es
Bu zz
meant ime
separ ation
appe aling
consist ency
bo ats
ens on
F an
f ence
P ast
decre ased
197 2
g ary
sequ el
Fin ance
correspond ing
RE L
is en
S lo
vari ation
A gr
per mits
arri ving
abstr act
med ian
dis orders
ad mits
inev it
comp aring
pp ers
Z ion
lack ing
inter ference
incent ive
arch ive
197 8
comp ly
cig arettes
trans formed
fem ales
K i
l ash
Tra vel
G h
commer ce
Act iv
W it
V I
ak u
ug s
far ms
be g
N ixon
Mil waukee
m und
batter ies
whe els
Polit ics
Car los
Di am
accur ately
S ant
econom ist
th irty
screen ing
after math
polit an
match ing
iv a
boy friend
Palest ine
Brazil ian
statist ical
jump ing
r as
Pro b
Ange l
Ar men
satis faction
rhy th
Epis ode
treat ments
K or
le verage
G S
L ane
G ear
Sp encer
magnet ic
T each
introdu cing
G ates
es p
Gr aph
r ings
ate ur
F err
isol ation
19 40
aggress ion
stre ak
App arent
ph p
g low
in struction
plant ed
In te
con clude
s lower
lobby ing
retail ers
Stud ios
S creen
al og
ug al
… ”
nom inated
1950 s
am big
if ier
R AM
Ber ry
Denn is
Er do
RO M
fol der
C au
Ex p
ar o
The atre
encounter ed
Re ed
hun gry
is ers
G as
inv ite
la bels
care ers
taxpay er
organis ations
clim bing
sque e
sk ins
psych ology
warning s
E bola
E ve
Orig inal
adv ances
real m
18 th
wonder ed
ADVERTIS EMENT
Super man
don ation
bu cks
shif ts
civil ization
Jo in
fe ared
in appropriate
gri p
fr ames
cons iders
Leban on
g ie
incl usion
mon sters
h ij
am o
iz able
Sci ences
F at
vill ages
K ill
establish ing
6 th
7 50
V C
9 11
gall ery
p izza
op ing
air y
. :
H ous
ten ure
Bre it
intent ions
compass ion
f lower
exam ination
um er
solid arity
vis a
cred ibility
Bud get
inter active
G am
Ur ban
Some one
commission er
fun eral
defin ing
fl es
Ste vens
ren tal
suspic ion
cre ators
du ction
work place
san ct
Work ers
entrepre neur
An aly
graph ical
op ath
Cow boys
he aling
ur ging
x ide
h orses
po inter
Tit an
arrange ment
incent ives
le agues
c art
stick s
reg ards
benef icial
E ight
dam ages
M IT
f ont
branch es
ref lection
tem ple
album s
d un
US D
are st
am end
hypo thesis
ut ical
Leg end
Bre ak
ony mous
organ ize
render ing
A x
c d
C ell
h ing
bu ck
El li
autonom ous
Gl enn
pe st
Apparent ly
B art
O H
Tr ail
B ull
Col omb
Fe ed
dou bled
M atch
g ian
at us
an ime
sum mar
ment ed
exp end
imag ined
Hill s
rel ating
soon er
recru iting
G C
mod ules
ul tra
de cks
dub bed
ul u
Hop efully
ank a
Harris on
ot es
eval uation
endors ed
nut s
fin ity
ic ism
Vi ol
out right
en ables
Official s
o res
tri ple
flow ers
novel s
it ate
routine ly
Wa it
OS T
elim inated
hal t
Stud y
C ann
B illy
T ill
ath lete
Co in
Recent ly
qu ad
Happ y
Lt d
d ivers
pres cri
sa il
be ers
ev a
coc aine
ok ing
So x
scre aming
ill o
prelim inary
ful fill
dete ction
N early
bin ary
g au
ack et
in qu
ue ller
mor ph
Ed ge
re public
he ter
av is
EC T
AC L
. “
astron om
o ly
unve iled
Plan et
except ions
sw ift
met a
disappoint ing
invest or
Elect ric
Im per
pil ots
ly rics
licens ing
N ar
arr anged
pe oples
function ing
co at
celebr ity
ste ep
plead ed
Ex change
black s
midfield er
for ums
Pro per
art ic
Muham mad
angel ical
L ate
p ip
bi ology
et ern
S id
preci ous
amp s
“ [
ind irect
Resour ces
T ory
cr icket
Brook s
like lihood
firm ly
vac ation
197 7
GM T
Bag h
op ard
smart phones
s q
v ine
c en
High way
Cal gary
wild life
sl aves
d ivid
gre y
Bern ard
by e
av or
j ac
F ish
subscri ption
L ot
Sn ap
m our
ad i
V ic
she er
Pal in
avo iding
med al
Research ers
sens ors
intention ally
char ter
S ug
threat en
b ikes
br ave
ou ds
severe ly
problem atic
analys es
Grif fin
laugh ing
me als
pro hibited
inc ere
ac counting
G PS
por no
Ju an
at ro
Sh ield
Pl anned
H at
C ele
196 9
ph ins
less er
Den mark
Jam ie
comment ed
e es
pa thetic
Bl ues
ind igenous
11 th
Laur a
Br ig
trad itions
toler ance
H im
r in
ob sc
sp are
sand wich
S B
ace utical
certific ate
catch ing
Hel p
po em
P RE
unt ed
de leted
Bl air
swim ming
ab il
Act ually
ur ance
sc ulpt
Scient ists
res cu
me ga
ot ics
counter parts
197 4
O ri
H ockey
mun ition
e ighth
S ent
Ultim ately
aud it
reason ably
Tun es
Phil lips
st ing
cut e
G it
stay s
le aks
mis leading
b ang
on er
far ming
consu med
implement ing
Ag ree
lean ing
Go ing
Ed wards
Vik ings
liter ary
length y
process ed
M ack
bes ides
ar ia
Ger mans
ast on
mort ality
Home land
Ch ip
Sh ip
Rac hel
col ored
R ico
S in
al beit
pro ving
fund raising
Bron cos
cre ativity
ig e
M ix
pl aus
de vil
Breit bart
ov a
in mates
moun t
v oy
ob serve
lock er
work force
in habit
aver aged
renew ed
rel ent
earth quake
se ctors
fort une
ur er
Bul ls
ab y
trad em
h l
should ers
sol ving
Wall ace
H og
proceed ings
li van
L earn
ou b
tun ed
ar ming
E ye
Bry an
Move ment
Ben nett
labe led
she ets
System s
special ist
affect ing
diabet es
A ve
Commer ce
adapt ation
H BO
P il
T B
Represent atives
t weak
ch arts
mid st
bus es
ab used
tim eline
heav en
D ear
Bob by
sc op
M ade
a qu
Start ing
touchdown s
support ive
C ape
ac com
IG HT
name ly
s om
ke es
Trans portation
assum ptions
s rc
ed y
Wel come
spher ic
Tr ack
consult ant
altern ate
in famous
where ver
Sur v
R oth
un acceptable
ul um
ju ice
ve to
arch ae
escap ed
ac company
ad mission
wood en
Sil icon
un anim
cuss ion
more d
t an
loy alty
f lies
wit ched
Conf eder
vulner ability
consol id
fil ming
ias m
\ \
w rist
p u
h ung
lim iting
Leg al
or che
le ather
fuel s
ale y
Cree k
br on
corpor ation
step ping
1 12
cor ners
de ar
predict ions
ap ology
ze ch
Poké mon
go ds
P un
Liber als
he ated
resu me
ios ity
for k
broad band
Def ence
simp lif
pract ically
se iz
omet ime
loc ate
attribut es
pre view
Add itional
ane ous
I X
orig ins
197 1
Pro cess
ubl in
ID S
Jo ined
ord ination
fi ber
m u
I B
pack s
affili ated
Malays ia
N T
F oc
dark ness
ex pose
occur ring
S K
re calls
| |
ML B
ac ious
bankrupt cy
insu la
Bagh dad
McCar thy
M ueller
n odes
independ ently
l ag
Paren thood
Comput er
the d
mem orial
gar bage
effect iveness
brow s
Com ics
add y
except ional
Every body
Cl ay
law suits
17 0
sl aughter
Lar ge
) (
encry ption
Cast le
del ays
substant ially
Assist ant
i h
per secut
diagno sis
sher iff
d umb
B ird
In t
Ch amber
ill usion
doctr ine
C e
rap ed
thorough ly
Sem it
Barbar a
P ic
N DP
el a
pr iced
under way
ct ed
For um
Ar n
div isions
R ah
cl am
P ix
resign ation
Four th
Sam uel
cul es
govern ance
territ ories
pl um
ne ath
purch asing
loc ally
teen age
photo grapher
K id
labor atory
off shore
ian g
loc als
f ame
R af
G ur
sha pes
protect ive
encry pt
el ing
Te h
behavi ors
crash ed
ch ase
An alysis
Rich mond
N ET
sp ill
sac red
St ay
es is
cost ly
reason ing
d ense
activ ated
Hur ricane
tra uma
medic ation
mo des
F T
on ed
after wards
music ians
crow ded
á n
shoot ings
Sul livan
So ccer
blo ody
sound ed
s witched
Raid ers
Vill age
B ed
P ere
A ld
K ate
Ch ile
Fort un
ver dict
Po ly
deal ers
F light
fundament ally
w ip
demonstr ations
Sun ni
p df
ather ine
u um
attack er
photo graphy
interpre ted
can ce
int ensive
dio xide
pro xim
test ified
obl igation
n as
clus ion
portfol io
un limited
vig il
pred omin
express ing
art if
tr im
D ublin
out break
D ays
s isters
AS T
tri bal
ne at
g ren
si ble
Mach ine
A U
oca ust
car riers
s ip
ins ists
assem bled
es ity
me lt
me g
pa ired
M edit
iss ance
F itz
Spur s
kill ings
ign oring
Un less
em power
contract ors
ex agger
dis count
p has
swe at
Reg ional
ent ries
cur y
shut down
abo ard
h ou
gener ic
veget ables
c av
elab orate
bus h
Gir ls
stri ker
C SS
4 50
tact ic
p iv
straight forward
Through out
B ishop
Tr ad
em bassy
G H
Tha iland
Bro s
consu me
e b
stat ue
central ized
h ilar
um bled
frust rating
mac ro
I de
d ancing
I BM
for bid
Ko ch
Bry ant
