{
  "<|endoftext|>": 0,
  "\u0000": 1,
  "\u0001": 2,
  "\u0002": 3,
  "\u0003": 4,
  "\u0004": 5,
  "\u0005": 6,
  "\u0006": 7,
  "\u0007": 8,
  "\b": 9,
  "\t": 10,
  "\n": 11,
  "\u000b": 12,
  "\f": 13,
  "\r": 14,
  "\u000e": 15,
  "\u000f": 16,
  "\u0010": 17,
  "\u0011": 18,
  "\u0012": 19,
  "\u0013": 20,
  "\u0014": 21,
  "\u0015": 22,
  "\u0016": 23,
  "\u0017": 24,
  "\u0018": 25,
  "\u0019": 26,
  "\u001a": 27,
  "\u001b": 28,
  "\u001c": 29,
  "\u001d": 30,
  "\u001e": 31,
  "\u001f": 32,
  " ": 33,
  "!": 34,
  "\"": 35,
  "#": 36,
  "$": 37,
  "%": 38,
  "&": 39,
  "'": 40,
  "(": 41,
  ")": 42,
  "*": 43,
  "+": 44,
  ",": 45,
  "-": 46,
  ".": 47,
  "/": 48,
  "0": 49,
  "1": 50,
  "2": 51,
  "3": 52,
  "4": 53,
  "5": 54,
  "6": 55,
  "7": 56,
  "8": 57,
  "9": 58,
  ":": 59,
  ";": 60,
  "<": 61,
  "=": 62,
  ">": 63,
  "?": 64,
  "@": 65,
  "A": 66,
  "B": 67,
  "C": 68,
  "D": 69,
  "E": 70,
  "F": 71,
  "G": 72,
  "H": 73,
  "I": 74,
  "J": 75,
  "K": 76,
  "L": 77,
  "M": 78,
  "N": 79,
  "O": 80,
  "P": 81,
  "Q": 82,
  "R": 83,
  "S": 84,
  "T": 85,
  "U": 86,
  "V": 87,
  "W": 88,
  "X": 89,
  "Y": 90,
  "Z": 91,
  "[": 92,
  "\\": 93,
  "]": 94,
  "^": 95,
  "_": 96,
  "`": 97,
  "a": 98,
  "b": 99,
  "c": 100,
  "d": 101,
  "e": 102,
  "f": 103,
  "g": 104,
  "h": 105,
  "i": 106,
  "j": 107,
  "k": 108,
  "l": 109,
  "m": 110,
  "n": 111,
  "o": 112,
  "p": 113,
  "q": 114,
  "r": 115,
  "s": 116,
  "t": 117,
  "u": 118,
  "v": 119,
  "w": 120,
  "x": 121,
  "y": 122,
  "z": 123,
  "{": 124,
  "|": 125,
  "}": 126,
  "~": 127,
  "\u007f": 128,
  "\u0080": 129,
  "\u0081": 130,
  "\u0082": 131,
  "\u0083": 132,
  "\u0084": 133,
  "\u0085": 134,
  "\u0086": 135,
  "\u0087": 136,
  "\u0088": 137,
  "\u0089": 138,
  "\u008a": 139,
  "\u008b": 140,
  "\u008c": 141,
  "\u008d": 142,
  "\u008e": 143,
  "\u008f": 144,
  "\u0090": 145,
  "\u0091": 146,
  "\u0092": 147,
  "\u0093": 148,
  "\u0094": 149,
  "\u0095": 150,
  "\u0096": 151,
  "\u0097": 152,
  "\u0098": 153,
  "\u0099": 154,
  "\u009a": 155,
  "\u009b": 156,
  "\u009c": 157,
  "\u009d": 158,
  "\u009e": 159,
  "\u009f": 160,
  "\u00a0": 161,
  "\u00a1": 162,
  "\u00a2": 163,
  "\u00a3": 164,
  "\u00a4": 165,
  "\u00a5": 166,
  "\u00a6": 167,
  "\u00a7": 168,
  "\u00a8": 169,
  "\u00a9": 170,
  "\u00aa": 171,
  "\u00ab": 172,
  "\u00ac": 173,
  "\u00ad": 174,
  "\u00ae": 175,
  "\u00af": 176,
  "\u00b0": 177,
  "\u00b1": 178,
  "\u00b2": 179,
  "\u00b3": 180,
  "\u00b4": 181,
  "\u00b5": 182,
  "\u00b6": 183,
  "\u00b7": 184,
  "\u00b8": 185,
  "\u00b9": 186,
  "\u00ba": 187,
  "\u00bb": 188,
  "\u00bc": 189,
  "\u00bd": 190,
  "\u00be": 191,
  "\u00bf": 192,
  "\u00c0": 193,
  "\u00c1": 194,
  "\u00c2": 195,
  "\u00c3": 196,
  "\u00c4": 197,
  "\u00c5": 198,
  "\u00c6": 199,
  "\u00c7": 200,
  "\u00c8": 201,
  "\u00c9": 202,
  "\u00ca": 203,
  "\u00cb": 204,
  "\u00cc": 205,
  "\u00cd": 206,
  "\u00ce": 207,
  "\u00cf": 208,
  "\u00d0": 209,
  "\u00d1": 210,
  "\u00d2": 211,
  "\u00d3": 212,
  "\u00d4": 213,
  "\u00d5": 214,
  "\u00d6": 215,
  "\u00d7": 216,
  "\u00d8": 217,
  "\u00d9": 218,
  "\u00da": 219,
  "\u00db": 220,
  "\u00dc": 221,
  "\u00dd": 222,
  "\u00de": 223,
  "\u00df": 224,
  "\u00e0": 225,
  "\u00e1": 226,
  "\u00e2": 227,
  "\u00e3": 228,
  "\u00e4": 229,
  "\u00e5": 230,
  "\u00e6": 231,
  "\u00e7": 232,
  "\u00e8": 233,
  "\u00e9": 234,
  "\u00ea": 235,
  "\u00eb": 236,
  "\u00ec": 237,
  "\u00ed": 238,
  "\u00ee": 239,
  "\u00ef": 240,
  "\u00f0": 241,
  "\u00f1": 242,
  "\u00f2": 243,
  "\u00f3": 244,
  "\u00f4": 245,
  "\u00f5": 246,
  "\u00f6": 247,
  "\u00f7": 248,
  "\u00f8": 249,
  "\u00f9": 250,
  "\u00fa": 251,
  "\u00fb": 252,
  "\u00fc": 253,
  "\u00fd": 254,
  "\u00fe": 255,
  "\u00ff": 256,
  "\u0101": 257,
  "\u0130": 258,
  "\u0153": 259,
  "\u026a": 260,
  "\u028f": 261,
  "\u0299": 262,
  "\u029c": 263,
  "\u0456": 264,
  "\u0493": 265,
  "\u1d00": 266,
  "\u1d04": 267,
  "\u1d05": 268,
  "\u1d07": 269,
  "\u1d0f": 270,
  "\u1d1b": 271,
  "\u1d1c": 272,
  "\u1d21": 273,
  "\u1d22": 274,
  "\u200b": 275,
  "\u200c": 276,
  "\u200e": 277,
  "\u2010": 278,
  "\u2011": 279,
  "\u2013": 280,
  "\u2014": 281,
  "\u2015": 282,
  "\u2018": 283,
  "\u2019": 284,
  "\u201a": 285,
  "\u201c": 286,
  "\u201d": 287,
  "\u201e": 288,
  "\u2026": 289,
  "\u202a": 290,
  "\u20ac": 291,
  "\u2122": 292,
  "\u2212": 293,
  "\u2500": 294,
  "\u2764": 295,
  "\u3002": 296,
  "\u4e00": 297,
  "\u4e86": 298,
  "\u4e9b": 299,
  "\u4ed6": 300,
  "\u4f46": 301,
  "\u4fdd": 302,
  "\u500b": 303,
  "\u5011": 304,
  "\u5152": 305,
  "\u5169": 306,
  "\u5206": 307,
  "\u5230": 308,
  "\u525b": 309,
  "\u53c8": 310,
  "\u548c": 311,
  "\u5728": 312,
  "\u5929": 313,
  "\u596e": 314,
  "\u5979": 315,
  "\u5df1": 316,
  "\u5df4": 317,
  "\u5ea6": 318,
  "\u5f88": 319,
  "\u6069": 320,
  "\u61c9": 321,
  "\u628a": 322,
  "\u6574": 323,
  "\u662f": 324,
  "\u6642": 325,
  "\u6703": 326,
  "\u7368": 327,
  "\u7389": 328,
  "\u7530": 329,
  "\u7559": 330,
  "\u7576": 331,
  "\u7684": 332,
  "\u7ae5": 333,
  "\u7b54": 334,
  "\u7c73": 335,
  "\u7d66": 336,
  "\u81ea": 337,
  "\u8208": 338,
  "\u827e": 339,
  "\u8389": 340,
  "\u88e1": 341,
  "\u9019": 342,
  "\u904e": 343,
  "\u96e3": 344,
  "\u9ad8": 345,
  "\ue000": 346,
  "\uf04a": 347,
  "\ufe0f": 348,
  "\ufeff": 349,
  "\uff0c": 350,
  "\ufffd": 351,
  "\ud83c\udf34": 352,
  "\ud83c\udf4c": 353,
  "\ud83c\udf93": 354,
  "\ud83e\udd29": 355,
  "he": 356,
  "an": 357,
  "the": 358,
  "ed": 359,
  "to": 360,
  "and": 361,
  "in": 362,
  "re": 363,
  "it": 364,
  "wa": 365,
  "ou": 366,
  "en": 367,
  "ha": 368,
  "The": 369,
  "er": 370,
  "was": 371,
  "ay": 372,
  "om": 373,
  "is": 374,
  "ar": 375,
  "on": 376,
  "im": 377,
  "sa": 378,
  "id": 379,
  "ll": 380,
  "le": 381,
  "ing": 382,
  "end": 383,
  "st": 384,
  "ot": 385,
  "am": 386,
  "or": 387,
  "ir": 388,
  "of": 389,
  "ne": 390,
  "They": 391,
  "pl": 392,
  "ig": 393,
  "at": 394,
  "He": 395,
  "be": 396,
  "il": 397,
  "lo": 398,
  "all": 399,
  "ri": 400,
  "ver": 401,
  "his": 402,
  "day": 403,
  "ut": 404,
  "play": 405,
  "said": 406,
  "Tim": 407,
  "ith": 408,
  "se": 409,
  "with": 410,
  "pp": 411,
  "her": 412,
  "ked": 413,
  "ow": 414,
  "ce": 415,
  "un": 416,
  "ke": 417,
  "She": 418,
  "hat": 419,
  "ld": 420,
  "th": 421,
  "big": 422,
  "you": 423,
  "ex": 424,
  "very": 425,
  "ted": 426,
  "ve": 427,
  "li": 428,
  "ck": 429,
  "we": 430,
  "happ": 431,
  "riend": 432,
  "friend": 433,
  "up": 434,
  "ily": 435,
  "they": 436,
  "had": 437,
  "ad": 438,
  "oft": 439,
  "not": 440,
  "wan": 441,
  "ge": 442,
  "ext": 443,
  "itt": 444,
  "<|": 445,
  "|>": 446,
  "endoft": 447,
  "endoftext": 448,
  "ome": 449,
  "ther": 450,
  "do": 451,
  "nd": 452,
  "bo": 453,
  "al": 454,
  "happy": 455,
  "ch": 456,
  "Lily": 457,
  "ent": 458,
  "for": 459,
  "that": 460,
  "saw": 461,
  "she": 462,
  "One": 463,
  "ould": 464,
  "mom": 465,
  "ittle": 466,
  "little": 467,
  "ime": 468,
  "as": 469,
  "Tom": 470,
  "so": 471,
  "time": 472,
  "ro": 473,
  "fe": 474,
  "nam": 475,
  ".\"": 476,
  "ound": 477,
  "es": 478,
  "there": 479,
  "oo": 480,
  "named": 481,
  "sm": 482,
  "were": 483,
  "It": 484,
  "wanted": 485,
  "but": 486,
  "friends": 487,
  "ved": 488,
  "!\"": 489,
  "ht": 490,
  "ird": 491,
  "sh": 492,
  "ry": 493,
  "are": 494,
  "bird": 495,
  "too": 496,
  "ra": 497,
  "On": 498,
  "my": 499,
  "out": 500,
  "ug": 501,
  "ake": 502,
  "ide": 503,
  "lp": 504,
  "ter": 505,
  "went": 506,
  "Once": 507,
  "car": 508,
  "loo": 509,
  "ue": 510,
  "help": 511,
  "upon": 512,
  "thing": 513,
  "ind": 514,
  "fun": 515,
  "toy": 516,
  "ill": 517,
  "ame": 518,
  "did": 519,
  "ly": 520,
  "gether": 521,
  "pe": 522,
  "ur": 523,
  "way": 524,
  "some": 525,
  "one": 526,
  "cat": 527,
  "me": 528,
  "together": 529,
  "ore": 530,
  "tre": 531,
  "ack": 532,
  "ag": 533,
  "new": 534,
  "can": 535,
  "dog": 536,
  "came": 537,
  "could": 538,
  "ood": 539,
  "their": 540,
  "ball": 541,
  "ic": 542,
  "par": 543,
  "gir": 544,
  "played": 545,
  "him": 546,
  "But": 547,
  "?\"": 548,
  "girl": 549,
  "go": 550,
  "fu": 551,
  "ho": 552,
  "man": 553,
  "them": 554,
  "hen": 555,
  "um": 556,
  "ax": 557,
  "sad": 558,
  "Sue": 559,
  "rom": 560,
  "boy": 561,
  "have": 562,
  "tree": 563,
  "Max": 564,
  "loved": 565,
  "looked": 566,
  "oug": 567,
  "hed": 568,
  "found": 569,
  "star": 570,
  "ab": 571,
  "side": 572,
  "other": 573,
  "back": 574,
  "Ben": 575,
  "la": 576,
  "lt": 577,
  "park": 578,
  "like": 579,
  "ain": 580,
  "Sam": 581,
  "ful": 582,
  "own": 583,
  "de": 584,
  "op": 585,
  "pr": 586,
  "et": 587,
  "ong": 588,
  "ight": 589,
  "no": 590,
  "pot": 591,
  "fa": 592,
  "ran": 593,
  "liked": 594,
  "would": 595,
  "sto": 596,
  "co": 597,
  "make": 598,
  "felt": 599,
  "You": 600,
  "see": 601,
  "now": 602,
  "want": 603,
  "asked": 604,
  "ouse": 605,
  "ard": 606,
  "started": 607,
  "ca": 608,
  "ought": 609,
  "iled": 610,
  "ice": 611,
  "good": 612,
  "small": 613,
  "wor": 614,
  "smiled": 615,
  "more": 616,
  "say": 617,
  "ried": 618,
  "mad": 619,
  "scar": 620,
  "red": 621,
  "gr": 622,
  "Spot": 623,
  "put": 624,
  "king": 625,
  "find": 626,
  "Mom": 627,
  "home": 628,
  "ty": 629,
  "away": 630,
  "what": 631,
  "something": 632,
  "from": 633,
  "made": 634,
  "uc": 635,
  "thought": 636,
  "ened": 637,
  "sha": 638,
  "playing": 639,
  "ia": 640,
  "wal": 641,
  "every": 642,
  "ach": 643,
  "mu": 644,
  "arn": 645,
  "Mia": 646,
  "ile": 647,
  "box": 648,
  "again": 649,
  "house": 650,
  "laug": 651,
  "ret": 652,
  "down": 653,
  "use": 654,
  "took": 655,
  "scared": 656,
  "learn": 657,
  "ny": 658,
  "ure": 659,
  "toys": 660,
  "get": 661,
  "ss": 662,
  "will": 663,
  "got": 664,
  "dd": 665,
  "around": 666,
  "things": 667,
  "ish": 668,
  "your": 669,
  "oud": 670,
  "lived": 671,
  "el": 672,
  "ick": 673,
  "low": 674,
  "lot": 675,
  "ave": 676,
  "pec": 677,
  "then": 678,
  "sun": 679,
  "ep": 680,
  "So": 681,
  "der": 682,
  ",\"": 683,
  "when": 684,
  "ob": 685,
  "pped": 686,
  "ie": 687,
  "na": 688,
  "bot": 689,
  "ru": 690,
  "Luc": 691,
  "Lucy": 692,
  "if": 693,
  "te": 694,
  "ant": 695,
  "room": 696,
  "tried": 697,
  "know": 698,
  "says": 699,
  "ump": 700,
  "ited": 701,
  "who": 702,
  "any": 703,
  "many": 704,
  "pic": 705,
  "about": 706,
  "us": 707,
  "care": 708,
  "pret": 709,
  "dec": 710,
  "We": 711,
  "by": 712,
  "knew": 713,
  "ous": 714,
  "ise": 715,
  "ally": 716,
  "pu": 717,
  "ist": 718,
  "ways": 719,
  "qu": 720,
  "learned": 721,
  "water": 722,
  "ate": 723,
  "ank": 724,
  "And": 725,
  "fter": 726,
  "became": 727,
  "best": 728,
  "ive": 729,
  "ust": 730,
  "gre": 731,
  "nex": 732,
  "long": 733,
  "bl": 734,
  "exc": 735,
  "cause": 736,
  "outside": 737,
  "laughed": 738,
  "mo": 739,
  "look": 740,
  "always": 741,
  "here": 742,
  "decid": 743,
  "show": 744,
  "eat": 745,
  "ite": 746,
  "decided": 747,
  "because": 748,
  "fore": 749,
  "cl": 750,
  "into": 751,
  "po": 752,
  "cle": 753,
  "ang": 754,
  "Let": 755,
  "jump": 756,
  "both": 757,
  "Then": 758,
  "run": 759,
  "hug": 760,
  "dad": 761,
  "ers": 762,
  "ma": 763,
  "ok": 764,
  "An": 765,
  "fast": 766,
  "sur": 767,
  "clo": 768,
  "When": 769,
  "this": 770,
  "excited": 771,
  "nice": 772,
  "feel": 773,
  "Yes": 774,
  "wh": 775,
  "sor": 776,
  "bb": 777,
  "pa": 778,
  "old": 779,
  "bu": 780,
  "ink": 781,
  "told": 782,
  "sk": 783,
  "come": 784,
  "Bob": 785,
  "br": 786,
  "inside": 787,
  "fish": 788,
  "surpr": 789,
  "His": 790,
  "iny": 791,
  "ook": 792,
  "pretty": 793,
  "fly": 794,
  "ara": 795,
  "gave": 796,
  "take": 797,
  "ta": 798,
  "our": 799,
  "let": 800,
  "each": 801,
  "jo": 802,
  "much": 803,
  "its": 804,
  "how": 805,
  "Anna": 806,
  "lew": 807,
  "under": 808,
  "imal": 809,
  "animal": 810,
  "Amy": 811,
  "udd": 812,
  "need": 813,
  "than": 814,
  "ven": 815,
  "able": 816,
  "flow": 817,
  "ac": 818,
  "As": 819,
  "sorry": 820,
  "har": 821,
  "sw": 822,
  "ell": 823,
  "uck": 824,
  "Can": 825,
  "Th": 826,
  "Sara": 827,
  "ged": 828,
  "ised": 829,
  "rock": 830,
  "dre": 831,
  "Thank": 832,
  "walked": 833,
  "urt": 834,
  "bear": 835,
  "read": 836,
  "hand": 837,
  "lea": 838,
  "urn": 839,
  "kind": 840,
  "rain": 841,
  "try": 842,
  "just": 843,
  "happened": 844,
  "str": 845,
  "Her": 846,
  "list": 847,
  "food": 848,
  "bet": 849,
  "didn": 850,
  "igh": 851,
  "fi": 852,
  "war": 853,
  "animals": 854,
  "spec": 855,
  "In": 856,
  "wat": 857,
  "near": 858,
  "sky": 859,
  "ine": 860,
  "cre": 861,
  "ving": 862,
  "bug": 863,
  "From": 864,
  "idea": 865,
  "better": 866,
  "heard": 867,
  "never": 868,
  "ket": 869,
  "che": 870,
  "tw": 871,
  "bro": 872,
  "bed": 873,
  "pla": 874,
  "ff": 875,
  "tal": 876,
  "love": 877,
  "nt": 878,
  "sp": 879,
  "careful": 880,
  "ber": 881,
  "share": 882,
  "tow": 883,
  "col": 884,
  "ial": 885,
  "flew": 886,
  "anymore": 887,
  "com": 888,
  "special": 889,
  "ion": 890,
  "lots": 891,
  "lf": 892,
  "per": 893,
  "where": 894,
  "don": 895,
  "wind": 896,
  "give": 897,
  "book": 898,
  "Every": 899,
  "safe": 900,
  "lad": 901,
  "clean": 902,
  "That": 903,
  "ground": 904,
  "even": 905,
  "ople": 906,
  "mag": 907,
  "over": 908,
  "cake": 909,
  "ass": 910,
  "shiny": 911,
  "udden": 912,
  "turn": 913,
  "fam": 914,
  "bad": 915,
  "after": 916,
  "Do": 917,
  "people": 918,
  "uddenly": 919,
  "proud": 920,
  "ever": 921,
  "rabb": 922,
  "door": 923,
  "surprised": 924,
  "high": 925,
  "hurt": 926,
  "pected": 927,
  "gard": 928,
  "garden": 929,
  "opened": 930,
  "picked": 931,
  "loud": 932,
  "clim": 933,
  "far": 934,
  "nexpected": 935,
  "unexpected": 936,
  "fo": 937,
  "bea": 938,
  "hard": 939,
  "app": 940,
  "What": 941,
  "place": 942,
  "unt": 943,
  "color": 944,
  "thanked": 945,
  "blue": 946,
  "still": 947,
  "ear": 948,
  "hugged": 949,
  "ct": 950,
  "call": 951,
  "No": 952,
  "off": 953,
  "mor": 954,
  "ough": 955,
  "magic": 956,
  "ummy": 957,
  "Wh": 958,
  "jumped": 959,
  "Jo": 960,
  "should": 961,
  "family": 962,
  "kid": 963,
  "walk": 964,
  "ool": 965,
  "smile": 966,
  "squ": 967,
  "rog": 968,
  "cha": 969,
  "imp": 970,
  "rel": 971,
  "uff": 972,
  "great": 973,
  "Suddenly": 974,
  "bra": 975,
  "stay": 976,
  "strong": 977,
  "ark": 978,
  "forest": 979,
  "tru": 980,
  "dan": 981,
  "itty": 982,
  "sl": 983,
  "ble": 984,
  "frog": 985,
  "until": 986,
  "beaut": 987,
  "Sally": 988,
  "stick": 989,
  "dy": 990,
  "boat": 991,
  "ort": 992,
  "ning": 993,
  "ess": 994,
  "next": 995,
  "ture": 996,
  "lease": 997,
  "This": 998,
  "Kitty": 999,
  "After": 1000,
  "pt": 1001,
  "happily": 1002,
  "listen": 1003,
  "ched": 1004,
  "kids": 1005,
  "beauti": 1006,
  "beautiful": 1007,
  "sed": 1008,
  "helped": 1009,
  "yes": 1010,
  "showed": 1011,
  "while": 1012,
  "story": 1013,
  "unny": 1014,
  "town": 1015,
  "cu": 1016,
  "keep": 1017,
  "At": 1018,
  "picture": 1019,
  "ree": 1020,
  "ste": 1021,
  "lly": 1022,
  "being": 1023,
  "ak": 1024,
  "met": 1025,
  "everyone": 1026,
  "ip": 1027,
  "raw": 1028,
  "called": 1029,
  "les": 1030,
  "stopped": 1031,
  "game": 1032,
  "Now": 1033,
  "Fin": 1034,
  "sing": 1035,
  "angry": 1036,
  "joy": 1037,
  "soft": 1038,
  "uffy": 1039,
  "open": 1040,
  "ane": 1041,
  "truck": 1042,
  "luffy": 1043,
  "cry": 1044,
  "yummy": 1045,
  "lost": 1046,
  "Jack": 1047,
  "vent": 1048,
  "warm": 1049,
  "ild": 1050,
  "ask": 1051,
  "brave": 1052,
  "work": 1053,
  "mouse": 1054,
  "ond": 1055,
  "won": 1056,
  "ished": 1057,
  "watch": 1058,
  "couldn": 1059,
  "doll": 1060,
  "flower": 1061,
  "leave": 1062,
  "face": 1063,
  "also": 1064,
  "fell": 1065,
  "flowers": 1066,
  "green": 1067,
  "mon": 1068,
  "llo": 1069,
  "two": 1070,
  "laugh": 1071,
  "less": 1072,
  "lock": 1073,
  "gan": 1074,
  "Look": 1075,
  "noise": 1076,
  "irst": 1077,
  "owl": 1078,
  "right": 1079,
  "store": 1080,
  "cream": 1081,
  "soon": 1082,
  "self": 1083,
  "top": 1084,
  "ser": 1085,
  "hole": 1086,
  "slide": 1087,
  "Hi": 1088,
  "Fluffy": 1089,
  "iz": 1090,
  "sat": 1091,
  "before": 1092,
  "irrel": 1093,
  "key": 1094,
  "ung": 1095,
  "ired": 1096,
  "illy": 1097,
  "race": 1098,
  "hear": 1099,
  "table": 1100,
  "kept": 1101,
  "yard": 1102,
  "nodd": 1103,
  "squirrel": 1104,
  "tor": 1105,
  "nodded": 1106,
  "used": 1107,
  "expl": 1108,
  "swing": 1109,
  "birds": 1110,
  "vo": 1111,
  "rabbit": 1112,
  "pain": 1113,
  "having": 1114,
  "hands": 1115,
  "mber": 1116,
  "set": 1117,
  "going": 1118,
  "tr": 1119,
  "looking": 1120,
  "Don": 1121,
  "funny": 1122,
  "rest": 1123,
  "head": 1124,
  "aybe": 1125,
  "uch": 1126,
  "catch": 1127,
  "ught": 1128,
  "fin": 1129,
  "shed": 1130,
  "yell": 1131,
  "think": 1132,
  "leep": 1133,
  "fix": 1134,
  "lled": 1135,
  "tired": 1136,
  "sn": 1137,
  "ting": 1138,
  "bunny": 1139,
  "ama": 1140,
  "wr": 1141,
  "ries": 1142,
  "night": 1143,
  "thr": 1144,
  "kit": 1145,
  "tell": 1146,
  "sound": 1147,
  "member": 1148,
  "has": 1149,
  "mean": 1150,
  "cold": 1151,
  "Why": 1152,
  "pond": 1153,
  "cook": 1154,
  "sunny": 1155,
  "others": 1156,
  "talk": 1157,
  "ds": 1158,
  "flo": 1159,
  "chen": 1160,
  "kitchen": 1161,
  "wait": 1162,
  "cut": 1163,
  "pie": 1164,
  "Dad": 1165,
  "cou": 1166,
  "dif": 1167,
  "first": 1168,
  "Hello": 1169,
  "mommy": 1170,
  "eyes": 1171,
  "age": 1172,
  "import": 1173,
  "fav": 1174,
  "ies": 1175,
  "con": 1176,
  "swe": 1177,
  "ath": 1178,
  "remember": 1179,
  "climb": 1180,
  "party": 1181,
  "ft": 1182,
  "ious": 1183,
  "sand": 1184,
  "bar": 1185,
  "orn": 1186,
  "move": 1187,
  "llow": 1188,
  "curi": 1189,
  "important": 1190,
  "light": 1191,
  "duck": 1192,
  "moral": 1193,
  "shared": 1194,
  "zy": 1195,
  "ster": 1196,
  "okay": 1197,
  "dress": 1198,
  "ash": 1199,
  "advent": 1200,
  "worked": 1201,
  "making": 1202,
  "enjoy": 1203,
  "times": 1204,
  "bright": 1205,
  "curious": 1206,
  "fru": 1207,
  "agre": 1208,
  "Mommy": 1209,
  "tall": 1210,
  "Joh": 1211,
  "dir": 1212,
  "hone": 1213,
  "hid": 1214,
  "John": 1215,
  "favor": 1216,
  "dis": 1217,
  "Wow": 1218,
  "sleep": 1219,
  "favorite": 1220,
  "began": 1221,
  "shar": 1222,
  "Bo": 1223,
  "fire": 1224,
  "bag": 1225,
  "hill": 1226,
  "agreed": 1227,
  "draw": 1228,
  "sho": 1229,
  "ken": 1230,
  "bre": 1231,
  "cla": 1232,
  "que": 1233,
  "hind": 1234,
  "watched": 1235,
  "follow": 1236,
  "mess": 1237,
  "zed": 1238,
  "Mr": 1239,
  "please": 1240,
  "pick": 1241,
  "block": 1242,
  "stop": 1243,
  "hung": 1244,
  "behind": 1245,
  "surprise": 1246,
  "paper": 1247,
  "gu": 1248,
  "hot": 1249,
  "Maybe": 1250,
  "worry": 1251,
  "dro": 1252,
  "dark": 1253,
  "Bobo": 1254,
  "trees": 1255,
  "voice": 1256,
  "grass": 1257,
  "walking": 1258,
  "lion": 1259,
  "air": 1260,
  "tail": 1261,
  "fere": 1262,
  "floor": 1263,
  "farm": 1264,
  "differe": 1265,
  "feeling": 1266,
  "song": 1267,
  "butter": 1268,
  "stand": 1269,
  "led": 1270,
  "wel": 1271,
  "ready": 1272,
  "ied": 1273,
  "colors": 1274,
  "Jane": 1275,
  "lady": 1276,
  "ange": 1277,
  "Timmy": 1278,
  "isy": 1279,
  "leaves": 1280,
  "closer": 1281,
  "ign": 1282,
  "cars": 1283,
  "turned": 1284,
  "needed": 1285,
  "wood": 1286,
  "cried": 1287,
  "piece": 1288,
  "different": 1289,
  "tri": 1290,
  "adventure": 1291,
  "does": 1292,
  "prin": 1293,
  "hair": 1294,
  "hungry": 1295,
  "cked": 1296,
  "bye": 1297,
  "yellow": 1298,
  "sweet": 1299,
  "ced": 1300,
  "full": 1301,
  "touch": 1302,
  "mar": 1303,
  "wet": 1304,
  "friendly": 1305,
  "mis": 1306,
  "ike": 1307,
  "cr": 1308,
  "ger": 1309,
  "din": 1310,
  "broken": 1311,
  "mou": 1312,
  "cra": 1313,
  "All": 1314,
  "land": 1315,
  "ient": 1316,
  "sit": 1317,
  "med": 1318,
  "prom": 1319,
  "another": 1320,
  "pretend": 1321,
  "dance": 1322,
  "reac": 1323,
  "climbed": 1324,
  "listened": 1325,
  "plan": 1326,
  "tle": 1327,
  "ater": 1328,
  "pen": 1329,
  "fl": 1330,
  "running": 1331,
  "To": 1332,
  "only": 1333,
  "river": 1334,
  "gone": 1335,
  "swim": 1336,
  "ila": 1337,
  "train": 1338,
  "andma": 1339,
  "thank": 1340,
  "smell": 1341,
  "There": 1342,
  "close": 1343,
  "ple": 1344,
  "tra": 1345,
  "gg": 1346,
  "Lila": 1347,
  "pet": 1348,
  "hold": 1349,
  "aby": 1350,
  "chair": 1351,
  "wonder": 1352,
  "blocks": 1353,
  "Everyone": 1354,
  "av": 1355,
  "fight": 1356,
  "reached": 1357,
  "lie": 1358,
  "bor": 1359,
  "wall": 1360,
  "rag": 1361,
  "ner": 1362,
  "ary": 1363,
  "helping": 1364,
  "kay": 1365,
  "slow": 1366,
  "ze": 1367,
  "cool": 1368,
  "glad": 1369,
  "hop": 1370,
  "goodbye": 1371,
  "been": 1372,
  "wear": 1373,
  "fair": 1374,
  "ins": 1375,
  "pushed": 1376,
  "ered": 1377,
  "oon": 1378,
  "dr": 1379,
  "iced": 1380,
  "bit": 1381,
  "Just": 1382,
  "sees": 1383,
  "hide": 1384,
  "coming": 1385,
  "must": 1386,
  "moment": 1387,
  "window": 1388,
  "balloon": 1389,
  "fr": 1390,
  "repl": 1391,
  "snow": 1392,
  "explore": 1393,
  "done": 1394,
  "bow": 1395,
  "Soon": 1396,
  "wished": 1397,
  "baby": 1398,
  "stuck": 1399,
  "buy": 1400,
  "fall": 1401,
  "real": 1402,
  "might": 1403,
  "name": 1404,
  "apple": 1405,
  "trying": 1406,
  "quick": 1407,
  "scary": 1408,
  "looks": 1409,
  "doing": 1410,
  "dream": 1411,
  "aisy": 1412,
  "ings": 1413,
  "dirty": 1414,
  "build": 1415,
  "outed": 1416,
  "ppy": 1417,
  "cket": 1418,
  "held": 1419,
  "Be": 1420,
  "ames": 1421,
  "spo": 1422,
  "arm": 1423,
  "je": 1424,
  "wise": 1425,
  "butterfly": 1426,
  "cast": 1427,
  "left": 1428,
  "deli": 1429,
  "swa": 1430,
  "shouted": 1431,
  "replied": 1432,
  "sure": 1433,
  "wo": 1434,
  "em": 1435,
  "win": 1436,
  "why": 1437,
  "reach": 1438,
  "bran": 1439,
  "through": 1440,
  "tiny": 1441,
  "wag": 1442,
  "mi": 1443,
  "mat": 1444,
  "three": 1445,
  "grow": 1446,
  "treat": 1447,
  "pulled": 1448,
  "brother": 1449,
  "woods": 1450,
  "art": 1451,
  "fill": 1452,
  "bus": 1453,
  "ton": 1454,
  "seen": 1455,
  "pink": 1456,
  "cup": 1457,
  "plant": 1458,
  "clapped": 1459,
  "sometimes": 1460,
  "ield": 1461,
  "andy": 1462,
  "year": 1463,
  "cloud": 1464,
  "swam": 1465,
  "grabb": 1466,
  "Okay": 1467,
  "job": 1468,
  "Inside": 1469,
  "colorful": 1470,
  "remembered": 1471,
  "nest": 1472,
  "bigger": 1473,
  "mouth": 1474,
  "lesson": 1475,
  "join": 1476,
  "Oh": 1477,
  "waved": 1478,
  "grabbed": 1479,
  "stayed": 1480,
  "Daisy": 1481,
  "uddy": 1482,
  "clothe": 1483,
  "Buddy": 1484,
  "rot": 1485,
  "nap": 1486,
  "oup": 1487,
  "clothes": 1488,
  "waited": 1489,
  "heav": 1490,
  "quickly": 1491,
  "pare": 1492,
  "broke": 1493,
  "games": 1494,
  "gent": 1495,
  "vis": 1496,
  "blew": 1497,
  "Finally": 1498,
  "gl": 1499,
  "ucky": 1500,
  "erous": 1501,
  "While": 1502,
  "row": 1503,
  "zz": 1504,
  "noticed": 1505,
  "enjoyed": 1506,
  "tast": 1507,
  "pur": 1508,
  "likes": 1509,
  "thre": 1510,
  "paint": 1511,
  "sea": 1512,
  "books": 1513,
  "pictures": 1514,
  "dry": 1515,
  "heavy": 1516,
  "mus": 1517,
  "alone": 1518,
  "gif": 1519,
  "asure": 1520,
  "anything": 1521,
  "spot": 1522,
  "live": 1523,
  "Tommy": 1524,
  "hopped": 1525,
  "world": 1526,
  "turns": 1527,
  "castle": 1528,
  "cont": 1529,
  "pat": 1530,
  "Sarah": 1531,
  "mix": 1532,
  "bike": 1533,
  "tight": 1534,
  "forgot": 1535,
  "everywhere": 1536,
  "Joe": 1537,
  "tower": 1538,
  "round": 1539,
  "threw": 1540,
  "himself": 1541,
  "whis": 1542,
  "Please": 1543,
  "followed": 1544,
  "ride": 1545,
  "ju": 1546,
  "board": 1547,
  "fruit": 1548,
  "ather": 1549,
  "\".": 1550,
  "white": 1551,
  "sec": 1552,
  "wrong": 1553,
  "makes": 1554,
  "Em": 1555,
  "stran": 1556,
  "break": 1557,
  "pre": 1558,
  "black": 1559,
  "parent": 1560,
  "thy": 1561,
  "music": 1562,
  "bee": 1563,
  "deep": 1564,
  "cess": 1565,
  "Re": 1566,
  "stone": 1567,
  "olly": 1568,
  "Billy": 1569,
  "ation": 1570,
  "whe": 1571,
  "stre": 1572,
  "oun": 1573,
  "wi": 1574,
  "pill": 1575,
  "lar": 1576,
  "iet": 1577,
  "danced": 1578,
  "ap": 1579,
  "ali": 1580,
  "wants": 1581,
  "leaf": 1582,
  "quiet": 1583,
  "ba": 1584,
  "monster": 1585,
  "understand": 1586,
  "bowl": 1587,
  "fur": 1588,
  "Come": 1589,
  "ub": 1590,
  "talked": 1591,
  "itten": 1592,
  "pes": 1593,
  "faster": 1594,
  "fully": 1595,
  "cookies": 1596,
  "pro": 1597,
  "leg": 1598,
  "brought": 1599,
  "ross": 1600,
  "sc": 1601,
  "ph": 1602,
  "cy": 1603,
  "mum": 1604,
  "sign": 1605,
  "ued": 1606,
  "ance": 1607,
  "sis": 1608,
  "ts": 1609,
  "well": 1610,
  "smart": 1611,
  "rocks": 1612,
  "someone": 1613,
  "poin": 1614,
  "cover": 1615,
  "sharing": 1616,
  "reali": 1617,
  "fox": 1618,
  "happen": 1619,
  "button": 1620,
  "branch": 1621,
  "finished": 1622,
  "really": 1623,
  "Gr": 1624,
  "hit": 1625,
  "ence": 1626,
  "oom": 1627,
  "itch": 1628,
  "orange": 1629,
  "sister": 1630,
  "dinner": 1631,
  "corn": 1632,
  "zing": 1633,
  "gi": 1634,
  "flying": 1635,
  "ele": 1636,
  "most": 1637,
  "fect": 1638,
  "contin": 1639,
  "worried": 1640,
  "sy": 1641,
  "beach": 1642,
  "af": 1643,
  "secret": 1644,
  "plane": 1645,
  "dang": 1646,
  "wish": 1647,
  "stu": 1648,
  "dren": 1649,
  "chil": 1650,
  "free": 1651,
  "spe": 1652,
  "today": 1653,
  "perfect": 1654,
  "min": 1655,
  "everything": 1656,
  "silly": 1657,
  "children": 1658,
  "shin": 1659,
  "filled": 1660,
  "field": 1661,
  "oth": 1662,
  "else": 1663,
  "stead": 1664,
  "OK": 1665,
  "smiles": 1666,
  "visit": 1667,
  "sang": 1668,
  "pow": 1669,
  "asks": 1670,
  "pull": 1671,
  "parents": 1672,
  "pudd": 1673,
  "snack": 1674,
  "eating": 1675,
  "pieces": 1676,
  "realized": 1677,
  "promised": 1678,
  "ctor": 1679,
  "pig": 1680,
  "spr": 1681,
  "pers": 1682,
  "continued": 1683,
  "bite": 1684,
  "ses": 1685,
  "ons": 1686,
  "carefully": 1687,
  "itting": 1688,
  "hig": 1689,
  "jar": 1690,
  "phone": 1691,
  "gra": 1692,
  "pper": 1693,
  "cow": 1694,
  "ated": 1695,
  "words": 1696,
  "moved": 1697,
  "drag": 1698,
  "mud": 1699,
  "rolled": 1700,
  "wave": 1701,
  "amp": 1702,
  "appear": 1703,
  "crying": 1704,
  "Jim": 1705,
  "blan": 1706,
  "blanket": 1707,
  "enough": 1708,
  "Le": 1709,
  "oney": 1710,
  "bath": 1711,
  "dri": 1712,
  "soup": 1713,
  "mother": 1714,
  "sail": 1715,
  "push": 1716,
  "imi": 1717,
  "My": 1718,
  "Mimi": 1719,
  "Jen": 1720,
  "drink": 1721,
  "Some": 1722,
  "pass": 1723,
  "snake": 1724,
  "boun": 1725,
  "roll": 1726,
  "throw": 1727,
  "crab": 1728,
  "laughing": 1729,
  "fairy": 1730,
  "ote": 1731,
  "amazing": 1732,
  "getting": 1733,
  "purple": 1734,
  "without": 1735,
  "grandma": 1736,
  "bottle": 1737,
  "gift": 1738,
  "mail": 1739,
  "money": 1740,
  "spl": 1741,
  "barked": 1742,
  "wagged": 1743,
  "past": 1744,
  "chool": 1745,
  "welcome": 1746,
  "sel": 1747,
  "monkey": 1748,
  "brown": 1749,
  "doctor": 1750,
  "ises": 1751,
  "school": 1752,
  "closed": 1753,
  "pping": 1754,
  "cious": 1755,
  "morning": 1756,
  "owner": 1757,
  "candy": 1758,
  "lone": 1759,
  "higher": 1760,
  "stoo": 1761,
  "treasure": 1762,
  "sitting": 1763,
  ".\u201d": 1764,
  "hes": 1765,
  "dangerous": 1766,
  "!\u201d": 1767,
  "net": 1768,
  "lonely": 1769,
  "shop": 1770,
  "living": 1771,
  "apples": 1772,
  "icy": 1773,
  "count": 1774,
  "strange": 1775,
  "comfor": 1776,
  "smo": 1777,
  "Bl": 1778,
  "shining": 1779,
  "road": 1780,
  "egg": 1781,
  "ants": 1782,
  "una": 1783,
  "creat": 1784,
  "paw": 1785,
  "cks": 1786,
  "shoes": 1787,
  "ible": 1788,
  "talking": 1789,
  "althy": 1790,
  "caught": 1791,
  "Ch": 1792,
  "stood": 1793,
  "lake": 1794,
  "runs": 1795,
  "coat": 1796,
  "bas": 1797,
  "letter": 1798,
  "wings": 1799,
  "chee": 1800,
  "cho": 1801,
  "nee": 1802,
  "va": 1803,
  "fan": 1804,
  "Fred": 1805,
  "years": 1806,
  "basket": 1807,
  "dragon": 1808,
  "days": 1809,
  "belie": 1810,
  "thinks": 1811,
  "mine": 1812,
  "delicious": 1813,
  "nose": 1814,
  "puddle": 1815,
  "igg": 1816,
  "farmer": 1817,
  "same": 1818,
  "Emma": 1819,
  "teddy": 1820,
  "unch": 1821,
  "mind": 1822,
  "sear": 1823,
  "ches": 1824,
  "Whis": 1825,
  "Molly": 1826,
  "Good": 1827,
  "fit": 1828,
  "bring": 1829,
  "gentle": 1830,
  "start": 1831,
  "wards": 1832,
  "Together": 1833,
  "finally": 1834,
  "cray": 1835,
  "pol": 1836,
  "scream": 1837,
  "kite": 1838,
  "shell": 1839,
  "vill": 1840,
  "hor": 1841,
  "singing": 1842,
  "idge": 1843,
  "tasty": 1844,
  "ace": 1845,
  "ben": 1846,
  "trou": 1847,
  "herself": 1848,
  "hoped": 1849,
  "answ": 1850,
  "wore": 1851,
  "arri": 1852,
  "uni": 1853,
  "swings": 1854,
  "Blue": 1855,
  "kis": 1856,
  "belong": 1857,
  "pack": 1858,
  "kers": 1859,
  "bush": 1860,
  "ng": 1861,
  "woke": 1862,
  "kn": 1863,
  "carrot": 1864,
  "ming": 1865,
  "ughty": 1866,
  "teach": 1867,
  "Bell": 1868,
  "eleph": 1869,
  "naughty": 1870,
  "dropped": 1871,
  "hu": 1872,
  "Whiskers": 1873,
  "coll": 1874,
  "teac": 1875,
  "pile": 1876,
  "hiding": 1877,
  "cour": 1878,
  "Remy": 1879,
  "Their": 1880,
  "di": 1881,
  "isa": 1882,
  "Bella": 1883,
  "bell": 1884,
  "touc": 1885,
  "puppy": 1886,
  "val": 1887,
  "kno": 1888,
  "su": 1889,
  "If": 1890,
  "llie": 1891,
  "twins": 1892,
  "lunch": 1893,
  "sack": 1894,
  "ment": 1895,
  "Lisa": 1896,
  "mach": 1897,
  "Grandma": 1898,
  "Mark": 1899,
  "rope": 1900,
  "course": 1901,
  "cheered": 1902,
  "shapes": 1903,
  "grew": 1904,
  "lay": 1905,
  "village": 1906,
  "fused": 1907,
  "erful": 1908,
  "shelf": 1909,
  "irth": 1910,
  "spin": 1911,
  "juice": 1912,
  "rainbow": 1913,
  "word": 1914,
  "part": 1915,
  "shook": 1916,
  "irthday": 1917,
  "bench": 1918,
  "street": 1919,
  "fence": 1920,
  "Jill": 1921,
  "cute": 1922,
  "nut": 1923,
  "cal": 1924,
  "cheese": 1925,
  "touched": 1926,
  "balls": 1927,
  "shad": 1928,
  "orm": 1929,
  "wand": 1930,
  "seed": 1931,
  "tea": 1932,
  "des": 1933,
  "loom": 1934,
  "eas": 1935,
  "arrived": 1936,
  "teacher": 1937,
  "wra": 1938,
  "band": 1939,
  "forever": 1940,
  "carry": 1941,
  "few": 1942,
  "bugs": 1943,
  "lla": 1944,
  "sounds": 1945,
  "sli": 1946,
  "blem": 1947,
  "problem": 1948,
  "Go": 1949,
  "num": 1950,
  "cing": 1951,
  "ier": 1952,
  "ilk": 1953,
  "promise": 1954,
  "wonderful": 1955,
  "birthday": 1956,
  "How": 1957,
  "stor": 1958,
  "dolls": 1959,
  "busy": 1960,
  "shy": 1961,
  "irp": 1962,
  "feels": 1963,
  "ade": 1964,
  "bread": 1965,
  "ian": 1966,
  "neck": 1967,
  "milk": 1968,
  "robot": 1969,
  "vel": 1970,
  "ntain": 1971,
  "heart": 1972,
  "pop": 1973,
  "believe": 1974,
  "cave": 1975,
  "irt": 1976,
  "pocket": 1977,
  "shake": 1978,
  "helpful": 1979,
  "seek": 1980,
  "storm": 1981,
  "slowly": 1982,
  "Pe": 1983,
  "umpy": 1984,
  "patient": 1985,
  "berries": 1986,
  "appeared": 1987,
  "driver": 1988,
  "ugly": 1989,
  "holding": 1990,
  "towards": 1991,
  "elephant": 1992,
  "upset": 1993,
  "ring": 1994,
  "turt": 1995,
  "kitten": 1996,
  "stories": 1997,
  "suc": 1998,
  "splash": 1999,
  "honey": 2000,
  "Sure": 2001,
  "late": 2002,
  "noises": 2003,
  "cir": 2004,
  "zoom": 2005,
  "Later": 2006,
  "spark": 2007,
  "sharp": 2008,
  "gray": 2009,
  "dirt": 2010,
  "dist": 2011,
  "seat": 2012,
  "Leo": 2013,
  "Ann": 2014,
  "ucket": 2015,
  "bucket": 2016,
  "meet": 2017,
  "uce": 2018,
  "shr": 2019,
  "note": 2020,
  "young": 2021,
  "amazed": 2022,
  "spoon": 2023,
  "turtle": 2024,
  "spid": 2025,
  "treats": 2026,
  "ull": 2027,
  "magical": 2028,
  "shine": 2029,
  "ped": 2030,
  "glow": 2031,
  "wash": 2032,
  "era": 2033,
  "fold": 2034,
  "Mama": 2035,
  "lemon": 2036,
  "comfortable": 2037,
  "trip": 2038,
  "mist": 2039,
  "gen": 2040,
  "quest": 2041,
  "hang": 2042,
  "horse": 2043,
  "jour": 2044,
  "loth": 2045,
  "add": 2046,
  "cloth": 2047,
  "puzz": 2048,
  "organ": 2049,
  "Daddy": 2050,
  "roar": 2051,
  "princess": 2052,
  "picy": 2053,
  "drive": 2054,
  "cookie": 2055,
  "hugs": 2056,
  "oose": 2057,
  "wild": 2058,
  "bled": 2059,
  "taking": 2060,
  "wheel": 2061,
  "organiz": 2062,
  "miss": 2063,
  "sug": 2064,
  "iling": 2065,
  "rich": 2066,
  "Of": 2067,
  "instead": 2068,
  "string": 2069,
  "ti": 2070,
  "lucky": 2071,
  "rude": 2072,
  "drove": 2073,
  "ero": 2074,
  "Bu": 2075,
  "mer": 2076,
  "lice": 2077,
  "huge": 2078,
  "spicy": 2079,
  "coin": 2080,
  "stars": 2081,
  "fighting": 2082,
  "Mary": 2083,
  "Hey": 2084,
  "tie": 2085,
  "bone": 2086,
  "den": 2087,
  "craw": 2088,
  "cor": 2089,
  "ek": 2090,
  "bubb": 2091,
  "last": 2092,
  "wide": 2093,
  "Cat": 2094,
  "life": 2095,
  "Ro": 2096,
  "card": 2097,
  "cannot": 2098,
  "whistle": 2099,
  "path": 2100,
  "ney": 2101,
  "sick": 2102,
  "bat": 2103,
  "comes": 2104,
  "resting": 2105,
  "rush": 2106,
  "circle": 2107,
  "spider": 2108,
  "foot": 2109,
  "snowman": 2110,
  "change": 2111,
  "inv": 2112,
  "Luna": 2113,
  "songs": 2114,
  "pillow": 2115,
  "fixed": 2116,
  "With": 2117,
  "sage": 2118,
  "boss": 2119,
  "giant": 2120,
  "erry": 2121,
  "ship": 2122,
  "forget": 2123,
  "joke": 2124,
  "pra": 2125,
  "moon": 2126,
  "taste": 2127,
  "wing": 2128,
  "worm": 2129,
  "machine": 2130,
  "grumpy": 2131,
  "coun": 2132,
  "thin": 2133,
  "step": 2134,
  "bri": 2135,
  "grab": 2136,
  "att": 2137,
  "rad": 2138,
  "peace": 2139,
  "Chirp": 2140,
  "ined": 2141,
  "daddy": 2142,
  "sour": 2143,
  "fing": 2144,
  "hidden": 2145,
  "suddenly": 2146,
  "wasn": 2147,
  "write": 2148,
  "landed": 2149,
  "confused": 2150,
  "chased": 2151,
  "inte": 2152,
  "ert": 2153,
  "fruits": 2154,
  "myster": 2155,
  "smooth": 2156,
  "stepped": 2157,
  "adventures": 2158,
  "oven": 2159,
  "cage": 2160,
  "missed": 2161,
  "takes": 2162,
  "selfish": 2163,
  "ggy": 2164,
  "tu": 2165,
  "kin": 2166,
  "sheep": 2167,
  "messy": 2168,
  "cop": 2169,
  "across": 2170,
  "pan": 2171,
  "though": 2172,
  "dest": 2173,
  "hero": 2174,
  "sticks": 2175,
  "ps": 2176,
  "later": 2177,
  "Momo": 2178,
  "io": 2179,
  "bought": 2180,
  "gy": 2181,
  "drew": 2182,
  "cord": 2183,
  "grate": 2184,
  "elly": 2185,
  "ars": 2186,
  "Chirpy": 2187,
  "?\u201d": 2188,
  "loves": 2189,
  "Ollie": 2190,
  "child": 2191,
  "beak": 2192,
  "line": 2193,
  "ducks": 2194,
  "legs": 2195,
  "body": 2196,
  "da": 2197,
  "fil": 2198,
  "covered": 2199,
  "ye": 2200,
  "grateful": 2201,
  "Bunny": 2202,
  "pty": 2203,
  "empty": 2204,
  "hope": 2205,
  "slid": 2206,
  "feather": 2207,
  "Doggy": 2208,
  "sleepy": 2209,
  "drum": 2210,
  "ions": 2211,
  "zoo": 2212,
  "save": 2213,
  "ward": 2214,
  "Help": 2215,
  "Mum": 2216,
  "Jerry": 2217,
  "clever": 2218,
  "smelly": 2219,
  "ban": 2220,
  "Jimmy": 2221,
  "shes": 2222,
  "interesting": 2223,
  "chick": 2224,
  "watching": 2225,
  "finish": 2226,
  "rubb": 2227,
  "log": 2228,
  "izzy": 2229,
  "gest": 2230,
  "plate": 2231,
  "clouds": 2232,
  "banan": 2233,
  "faces": 2234,
  "Where": 2235,
  "backyard": 2236,
  "wolf": 2237,
  "test": 2238,
  "izz": 2239,
  "dogs": 2240,
  "spray": 2241,
  "seemed": 2242,
  "og": 2243,
  "Here": 2244,
  "rank": 2245,
  "prote": 2246,
  "whole": 2247,
  "fancy": 2248,
  "arms": 2249,
  "healthy": 2250,
  "gives": 2251,
  "puzzle": 2252,
  "pin": 2253,
  "sent": 2254,
  "along": 2255,
  "rocket": 2256,
  "explain": 2257,
  "tom": 2258,
  "easy": 2259,
  "trouble": 2260,
  "jewel": 2261,
  "working": 2262,
  "pract": 2263,
  "jelly": 2264,
  "fake": 2265,
  "tid": 2266,
  "spla": 2267,
  "scre": 2268,
  "maybe": 2269,
  "hing": 2270,
  "crayons": 2271,
  "wondered": 2272,
  "fron": 2273,
  "cape": 2274,
  "nothing": 2275,
  "stair": 2276,
  "ipp": 2277,
  "pool": 2278,
  "front": 2279,
  "Bird": 2280,
  "longer": 2281,
  "queen": 2282,
  "anyone": 2283,
  "mir": 2284,
  "van": 2285,
  "sol": 2286,
  "such": 2287,
  "imag": 2288,
  "hello": 2289,
  "bossy": 2290,
  "neigh": 2291,
  "ves": 2292,
  "smelled": 2293,
  "saved": 2294,
  "Bobby": 2295,
  "vie": 2296,
  "shirt": 2297,
  "barr": 2298,
  "honest": 2299,
  "embarr": 2300,
  "lift": 2301,
  "iting": 2302,
  "berry": 2303,
  "tidy": 2304,
  "shout": 2305,
  "Are": 2306,
  "weak": 2307,
  "kick": 2308,
  "puts": 2309,
  "embarrass": 2310,
  "calm": 2311,
  "plants": 2312,
  "gently": 2313,
  "coo": 2314,
  "cozy": 2315,
  "ugg": 2316,
  "explor": 2317,
  "sco": 2318,
  "mistake": 2319,
  "aser": 2320,
  "yog": 2321,
  "onto": 2322,
  "waiting": 2323,
  "pointed": 2324,
  "cross": 2325,
  "jumping": 2326,
  "prince": 2327,
  "erly": 2328,
  "forgive": 2329,
  "bul": 2330,
  "chicken": 2331,
  "lovely": 2332,
  "Stop": 2333,
  "bal": 2334,
  "stret": 2335,
  "large": 2336,
  "match": 2337,
  "ladder": 2338,
  "deer": 2339,
  "couch": 2340,
  "ughter": 2341,
  "lex": 2342,
  "lown": 2343,
  "places": 2344,
  "colle": 2345,
  "bridge": 2346,
  "daughter": 2347,
  "return": 2348,
  "raid": 2349,
  "stir": 2350,
  "nic": 2351,
  "dish": 2352,
  "afraid": 2353,
  "Tiny": 2354,
  "cleaned": 2355,
  "tomor": 2356,
  "tomorrow": 2357,
  "building": 2358,
  "law": 2359,
  "wich": 2360,
  "ado": 2361,
  "sandwich": 2362,
  "person": 2363,
  "ned": 2364,
  "asha": 2365,
  "pretended": 2366,
  "bounce": 2367,
  "ending": 2368,
  "eth": 2369,
  "search": 2370,
  "pizz": 2371,
  "boring": 2372,
  "wom": 2373,
  "gather": 2374,
  "protect": 2375,
  "ast": 2376,
  "woman": 2377,
  "teeth": 2378,
  "scarf": 2379,
  "jog": 2380,
  "goes": 2381,
  "pri": 2382,
  "hin": 2383,
  "Your": 2384,
  "swimming": 2385,
  "furry": 2386,
  "splashed": 2387,
  "number": 2388,
  "true": 2389,
  "screamed": 2390,
  "lazy": 2391,
  "ually": 2392,
  "eag": 2393,
  "answer": 2394,
  "fear": 2395,
  "ashamed": 2396,
  "pens": 2397,
  "pizza": 2398,
  "Benny": 2399,
  "brush": 2400,
  "ones": 2401,
  "motor": 2402,
  "Sometimes": 2403,
  "nearby": 2404,
  "powerful": 2405,
  "flag": 2406,
  "vous": 2407,
  "clown": 2408,
  "ress": 2409,
  "respec": 2410,
  "Ducky": 2411,
  "Will": 2412,
  "success": 2413,
  "TV": 2414,
  "polite": 2415,
  "chocol": 2416,
  "hose": 2417,
  "clear": 2418,
  "trust": 2419,
  "creative": 2420,
  "wearing": 2421,
  "case": 2422,
  "noisy": 2423,
  "ail": 2424,
  "matter": 2425,
  "dig": 2426,
  "fli": 2427,
  "tool": 2428,
  "ror": 2429,
  "ult": 2430,
  "nervous": 2431,
  "shadow": 2432,
  "smiling": 2433,
  "sold": 2434,
  "saur": 2435,
  "Bear": 2436,
  "ery": 2437,
  "form": 2438,
  "drank": 2439,
  "osaur": 2440,
  "tries": 2441,
  "chocolate": 2442,
  "Give": 2443,
  "oc": 2444,
  "impress": 2445,
  "wha": 2446,
  "icro": 2447,
  "Who": 2448,
  "knee": 2449,
  "dinosaur": 2450,
  "gun": 2451,
  "mirror": 2452,
  "gold": 2453,
  "rare": 2454,
  "balloons": 2455,
  "cand": 2456,
  "jam": 2457,
  "carried": 2458,
  "pensive": 2459,
  "ich": 2460,
  "known": 2461,
  "ute": 2462,
  "expensive": 2463,
  "cri": 2464,
  "bald": 2465,
  "map": 2466,
  "au": 2467,
  "ina": 2468,
  "mysterious": 2469,
  "respect": 2470,
  "pump": 2471,
  "march": 2472,
  "oppy": 2473,
  "class": 2474,
  "weird": 2475,
  "snee": 2476,
  "tent": 2477,
  "gate": 2478,
  "soap": 2479,
  "Me": 2480,
  "act": 2481,
  "icked": 2482,
  "issor": 2483,
  "these": 2484,
  "issors": 2485,
  "poor": 2486,
  "towel": 2487,
  "whale": 2488,
  "feet": 2489,
  "tape": 2490,
  "rough": 2491,
  "dizzy": 2492,
  "andpa": 2493,
  "itter": 2494,
  "generous": 2495,
  "Ella": 2496,
  "tory": 2497,
  "chew": 2498,
  "sque": 2499,
  "ours": 2500,
  "ness": 2501,
  "wake": 2502,
  "lead": 2503,
  "ventually": 2504,
  "picnic": 2505,
  "micro": 2506,
  "embarrassed": 2507,
  "ling": 2508,
  "sugar": 2509,
  "journey": 2510,
  "boot": 2511,
  "peaceful": 2512,
  "fat": 2513,
  "Andy": 2514,
  "print": 2515,
  "ee": 2516,
  "scissors": 2517,
  "kiss": 2518,
  "mel": 2519,
  "tasted": 2520,
  "yelled": 2521,
  "hur": 2522,
  "dancing": 2523,
  "glue": 2524,
  "lose": 2525,
  "decor": 2526,
  "oop": 2527,
  "closet": 2528,
  "crown": 2529,
  "chase": 2530,
  "ual": 2531,
  "lamp": 2532,
  "scare": 2533,
  "usual": 2534,
  "eld": 2535,
  "locked": 2536,
  "pay": 2537,
  "relie": 2538,
  "cele": 2539,
  "tele": 2540,
  "celebr": 2541,
  "spa": 2542,
  "blow": 2543,
  "stairs": 2544,
  "painted": 2545,
  "vase": 2546,
  "vide": 2547,
  "burn": 2548,
  "spread": 2549,
  "mixed": 2550,
  "norm": 2551,
  "wouldn": 2552,
  "bake": 2553,
  "rod": 2554,
  "getable": 2555,
  "mountain": 2556,
  "bean": 2557,
  "inc": 2558,
  "become": 2559,
  "Jenny": 2560,
  "drawing": 2561,
  "clock": 2562,
  "gust": 2563,
  "famous": 2564,
  "Little": 2565,
  "knocked": 2566,
  "vegetable": 2567,
  "kicked": 2568,
  "shark": 2569,
  "normal": 2570,
  "incred": 2571,
  "group": 2572,
  "Rex": 2573,
  "team": 2574,
  "ignor": 2575,
  "collect": 2576,
  "fine": 2577,
  "glass": 2578,
  "thick": 2579,
  "guess": 2580,
  "elderly": 2581,
  "lace": 2582,
  "corner": 2583,
  "cone": 2584,
  "mighty": 2585,
  "frustr": 2586,
  "incredible": 2587,
  "nail": 2588,
  "sup": 2589,
  "ighed": 2590,
  "moms": 2591,
  "breath": 2592,
  "balance": 2593,
  "gas": 2594,
  "Zoom": 2595,
  "est": 2596,
  "frag": 2597,
  "space": 2598,
  "Sammy": 2599,
  "sock": 2600,
  "tun": 2601,
  "organized": 2602,
  "fright": 2603,
  "branches": 2604,
  "sell": 2605,
  "alous": 2606,
  "fool": 2607,
  "feed": 2608,
  "neighbor": 2609,
  "hel": 2610,
  "fragile": 2611,
  "aw": 2612,
  "which": 2613,
  "umble": 2614,
  "shoe": 2615,
  "jealous": 2616,
  "yarn": 2617,
  "horn": 2618,
  "pir": 2619,
  "understood": 2620,
  "pair": 2621,
  "exam": 2622,
  "stubb": 2623,
  "pray": 2624,
  "stubborn": 2625,
  "frustrated": 2626,
  "cube": 2627,
  "whisper": 2628,
  "anc": 2629,
  "twist": 2630,
  "chest": 2631,
  "spent": 2632,
  "cher": 2633,
  "ten": 2634,
  "taught": 2635,
  "stic": 2636,
  "chang": 2637,
  "bark": 2638,
  "ray": 2639,
  "creature": 2640,
  "spoiled": 2641,
  "ancient": 2642,
  "cart": 2643,
  "relieved": 2644,
  "fier": 2645,
  "terri": 2646,
  "fierce": 2647,
  "owed": 2648,
  "barn": 2649,
  "measure": 2650,
  "eggs": 2651,
  "pumpkin": 2652,
  "toug": 2653,
  "frightened": 2654,
  "unique": 2655,
  "cab": 2656,
  "wrap": 2657,
  "goat": 2658,
  "wagon": 2659,
  "foolish": 2660,
  "useful": 2661,
  "straw": 2662,
  "exploring": 2663,
  "dead": 2664,
  "unusual": 2665,
  "dug": 2666,
  "gigg": 2667,
  "clay": 2668,
  "toma": 2669,
  "tomato": 2670,
  "police": 2671,
  "finding": 2672,
  "present": 2673,
  "wrote": 2674,
  "clum": 2675,
  "Br": 2676,
  "waves": 2677,
  "ity": 2678,
  "ony": 2679,
  "square": 2680,
  "hears": 2681,
  "soar": 2682,
  "cabin": 2683,
  "tells": 2684,
  "necklace": 2685,
  "dull": 2686,
  "iver": 2687,
  "tough": 2688,
  "clumsy": 2689,
  "tig": 2690,
  "bubbles": 2691,
  "nosy": 2692,
  "searched": 2693,
  "ham": 2694,
  "washed": 2695,
  "lu": 2696,
  "orry": 2697,
  "painting": 2698,
  "bathroom": 2699,
  "yal": 2700,
  "ize": 2701,
  "paws": 2702,
  "rat": 2703,
  "wis": 2704,
  "clap": 2705,
  "fic": 2706,
  "crazy": 2707,
  "bitter": 2708,
  "ipped": 2709,
  "asking": 2710,
  "thankful": 2711,
  "cil": 2712,
  "Sorry": 2713,
  "witch": 2714,
  "ficult": 2715,
  "difficult": 2716,
  "rose": 2717,
  "Today": 2718,
  "swan": 2719,
  "ato": 2720,
  "unknown": 2721,
  "bloom": 2722,
  "meal": 2723,
  "gloom": 2724,
  "pencil": 2725,
  "finger": 2726,
  "ife": 2727,
  "jet": 2728,
  "sword": 2729,
  "lin": 2730,
  "sca": 2731,
  "gloomy": 2732,
  "loyal": 2733,
  "wealthy": 2734,
  "Many": 2735,
  "zip": 2736,
  "cats": 2737,
  "moving": 2738,
  "cate": 2739,
  "guit": 2740,
  "value": 2741,
  "dove": 2742,
  "joined": 2743,
  "changed": 2744,
  "terrible": 2745,
  "anut": 2746,
  "yours": 2747,
  "nuts": 2748,
  "stri": 2749,
  "bers": 2750,
  "salad": 2751,
  "rise": 2752,
  "iant": 2753,
  "cane": 2754,
  "order": 2755,
  "selves": 2756,
  "Ted": 2757,
  "Brown": 2758,
  "tiger": 2759,
  "potato": 2760,
  "shoot": 2761,
  "lexible": 2762,
  "knowing": 2763,
  "exciting": 2764,
  "hairy": 2765,
  "Instead": 2766,
  "cheap": 2767,
  "marble": 2768,
  "lif": 2769,
  "guitar": 2770,
  "irsty": 2771,
  "adventur": 2772,
  "enorm": 2773,
  "yourself": 2774,
  "enormous": 2775,
  "cro": 2776,
  "fla": 2777,
  "solve": 2778,
  "pepper": 2779,
  "remind": 2780,
  "record": 2781,
  "bored": 2782,
  "agree": 2783,
  "sunshine": 2784,
  "adventurous": 2785,
  "acorn": 2786,
  "hats": 2787,
  "smaller": 2788,
  "flash": 2789,
  "stuff": 2790,
  "flexible": 2791,
  "delicate": 2792,
  "dle": 2793,
  "knife": 2794,
  "lliant": 2795,
  "coura": 2796,
  "shore": 2797,
  "snacks": 2798,
  "nods": 2799,
  "dough": 2800,
  "brilliant": 2801,
  "thirsty": 2802,
  "res": 2803,
  "disgust": 2804,
  "stat": 2805,
  "market": 2806,
  "frown": 2807,
  "upid": 2808,
  "rane": 2809,
  "counted": 2810,
  "banana": 2811,
  "seeds": 2812,
  "asleep": 2813,
  "Ow": 2814,
  "heal": 2815,
  "stage": 2816,
  "mailbox": 2817,
  "sport": 2818,
  "trick": 2819,
  "hoop": 2820,
  "St": 2821,
  "ungle": 2822,
  "squee": 2823,
  "ident": 2824,
  "jungle": 2825,
  "supp": 2826,
  "page": 2827,
  "explained": 2828,
  "disgusting": 2829,
  "stupid": 2830,
  "umbre": 2831,
  "jolly": 2832,
  "fridge": 2833,
  "flies": 2834,
  "dge": 2835,
  "dep": 2836,
  "four": 2837,
  "ilt": 2838,
  "Jake": 2839,
  "crane": 2840,
  "iddle": 2841,
  "ular": 2842,
  "igin": 2843,
  "relax": 2844,
  "obed": 2845,
  "island": 2846,
  "cater": 2847,
  "sunflower": 2848,
  "caterpill": 2849,
  "shiver": 2850,
  "iness": 2851,
  "epend": 2852,
  "iginal": 2853,
  "harm": 2854,
  "medic": 2855,
  "See": 2856,
  "ates": 2857,
  "eng": 2858,
  "goose": 2859,
  "stove": 2860,
  "gets": 2861,
  "spring": 2862,
  "using": 2863,
  "obedient": 2864,
  "verse": 2865,
  "independ": 2866,
  "Tr": 2867,
  "suit": 2868,
  "del": 2869,
  "gem": 2870,
  "batter": 2871,
  "medicine": 2872,
  "stal": 2873,
  "stones": 2874,
  "sighed": 2875,
  "original": 2876,
  "Emily": 2877,
  "vegetables": 2878,
  "rug": 2879,
  "port": 2880,
  "careless": 2881,
  "stamp": 2882,
  "successful": 2883,
  "mark": 2884,
  "men": 2885,
  "sauce": 2886,
  "cries": 2887,
  "Lu": 2888,
  "carrots": 2889,
  "depend": 2890,
  "jeep": 2891,
  "popcorn": 2892,
  "almost": 2893,
  "middle": 2894,
  "study": 2895,
  "independent": 2896,
  "spit": 2897,
  "pal": 2898,
  "fearful": 2899,
  "inky": 2900,
  "escape": 2901,
  "belt": 2902,
  "press": 2903,
  "ountain": 2904,
  "brace": 2905,
  "caterpillar": 2906,
  "serious": 2907,
  "peanut": 2908,
  "bedroom": 2909,
  "eager": 2910,
  "parrot": 2911,
  "pebb": 2912,
  "statue": 2913,
  "helmet": 2914,
  "acket": 2915,
  "fountain": 2916,
  "pasta": 2917,
  "raven": 2918,
  "umbrella": 2919,
  "jacket": 2920,
  "belonged": 2921,
  "filthy": 2922,
  "design": 2923,
  "borrow": 2924,
  "houses": 2925,
  "erable": 2926,
  "comb": 2927,
  "liz": 2928,
  "prize": 2929,
  "hay": 2930,
  "standing": 2931,
  "melon": 2932,
  "miserable": 2933,
  "raced": 2934,
  "uli": 2935,
  "bracelet": 2936,
  "taken": 2937,
  "gum": 2938,
  "fork": 2939,
  "lean": 2940,
  "avo": 2941,
  "web": 2942,
  "vest": 2943,
  "triang": 2944,
  "impressive": 2945,
  "crayon": 2946,
  "choose": 2947,
  "fig": 2948,
  "nel": 2949,
  "oured": 2950,
  "True": 2951,
  "tied": 2952,
  "steal": 2953,
  "spotted": 2954,
  "lifted": 2955,
  "slipped": 2956,
  "liable": 2957,
  "tank": 2958,
  "wip": 2959,
  "ased": 2960,
  "Mummy": 2961,
  "cer": 2962,
  "thoughtful": 2963,
  "dependable": 2964,
  "toast": 2965,
  "arage": 2966,
  "Peter": 2967,
  "built": 2968,
  "arrow": 2969,
  "garage": 2970,
  "Even": 2971,
  "ipe": 2972,
  "crack": 2973,
  "news": 2974,
  "boats": 2975,
  "lid": 2976,
  "mole": 2977,
  "dolp": 2978,
  "iano": 2979,
  "crawled": 2980,
  "scale": 2981,
  "giving": 2982,
  "hammer": 2983,
  "char": 2984,
  "piano": 2985,
  "bottom": 2986,
  "picks": 2987,
  "cheerful": 2988,
  "smoke": 2989,
  "moder": 2990,
  "dile": 2991,
  "shows": 2992,
  "shroom": 2993,
  "jug": 2994,
  "oin": 2995,
  "codile": 2996,
  "hurts": 2997,
  "aunt": 2998,
  "serve": 2999,
  "waff": 3000,
  "cco": 3001,
  "wrapped": 3002,
  "modern": 3003,
  "reliable": 3004,
  "tunnel": 3005,
  "nder": 3006,
  "hopping": 3007,
  "mask": 3008,
  "boys": 3009,
  "host": 3010,
  "rubbed": 3011,
  "mushroom": 3012,
  "squash": 3013,
  "sink": 3014,
  "tax": 3015,
  "movie": 3016,
  "pear": 3017,
  "flute": 3018,
  "beet": 3019,
  "rid": 3020,
  "popular": 3021,
  "rub": 3022,
  "cam": 3023,
  "sil": 3024,
  "licop": 3025,
  "licopter": 3026,
  "crystal": 3027,
  "compet": 3028,
  "appoin": 3029,
  "helicopter": 3030,
  "needs": 3031,
  "llip": 3032,
  "llipop": 3033,
  "dinary": 3034,
  "crocodile": 3035,
  "lizard": 3036,
  "ordinary": 3037,
  "competit": 3038,
  "troubled": 3039,
  "pige": 3040,
  "lollipop": 3041,
  "tricks": 3042,
  "playful": 3043,
  "humble": 3044,
  "taxi": 3045,
  "kissed": 3046,
  "Sus": 3047,
  "amond": 3048,
  "licked": 3049,
  "uncomfortable": 3050,
  "cap": 3051,
  "angel": 3052,
  "edy": 3053,
  "grace": 3054,
  "muff": 3055,
  "torn": 3056,
  "anx": 3057,
  "pants": 3058,
  "twig": 3059,
  "disappoin": 3060,
  "helps": 3061,
  "diamond": 3062,
  "camera": 3063,
  "quar": 3064,
  "anxious": 3065,
  "ghost": 3066,
  "tears": 3067,
  "ruined": 3068,
  "lime": 3069,
  "cident": 3070,
  "ilty": 3071,
  "env": 3072,
  "weet": 3073,
  "guilty": 3074,
  "tube": 3075,
  "happiness": 3076,
  "bull": 3077,
  "aero": 3078,
  "helpless": 3079,
  "walks": 3080,
  "load": 3081,
  "passed": 3082,
  "cean": 3083,
  "une": 3084,
  "Next": 3085,
  "ears": 3086,
  "radio": 3087,
  "ocean": 3088,
  "polish": 3089,
  "deaf": 3090,
  "fluffy": 3091,
  "stretch": 3092,
  "runk": 3093,
  "candle": 3094,
  "meant": 3095,
  "cact": 3096,
  "coco": 3097,
  "bees": 3098,
  "beetle": 3099,
  "mop": 3100,
  "harmless": 3101,
  "answered": 3102,
  "stum": 3103,
  "collar": 3104,
  "shape": 3105,
  "Pipp": 3106,
  "quarrel": 3107,
  "compl": 3108,
  "trum": 3109,
  "flashlight": 3110,
  "lit": 3111,
  "Poppy": 3112,
  "harder": 3113,
  "poured": 3114,
  "tti": 3115,
  "cereal": 3116,
  "persist": 3117,
  "engine": 3118,
  "tag": 3119,
  "passion": 3120,
  "melt": 3121,
  "cado": 3122,
  "invited": 3123,
  "comput": 3124,
  "tooth": 3125,
  "trumpet": 3126,
  "office": 3127,
  "spill": 3128,
  "scoot": 3129,
  "triangle": 3130,
  "inse": 3131,
  "mug": 3132,
  "yogurt": 3133,
  "shade": 3134,
  "accident": 3135,
  "gular": 3136,
  "hip": 3137,
  "aghe": 3138,
  "aghetti": 3139,
  "disappointed": 3140,
  "Buzz": 3141,
  "sheet": 3142,
  "regular": 3143,
  "cactus": 3144,
  "pale": 3145,
  "Fo": 3146,
  "rice": 3147,
  "cush": 3148,
  "figure": 3149,
  "screen": 3150,
  "barber": 3151,
  "thie": 3152,
  "avocado": 3153,
  "roof": 3154,
  "power": 3155,
  "whispered": 3156,
  "pipe": 3157,
  "create": 3158,
  "tellig": 3159,
  "gue": 3160,
  "comple": 3161,
  "intellig": 3162,
  "asses": 3163,
  "rode": 3164,
  "thread": 3165,
  "icycle": 3166,
  "harsh": 3167,
  "libr": 3168,
  "vol": 3169,
  "gifted": 3170,
  "dust": 3171,
  "uth": 3172,
  "ubby": 3173,
  "cycle": 3174,
  "practiced": 3175,
  "ccoli": 3176,
  "Dan": 3177,
  "bicycle": 3178,
  "spaghetti": 3179,
  "velo": 3180,
  "compassion": 3181,
  "tur": 3182,
  "Polly": 3183,
  "speed": 3184,
  "sailed": 3185,
  "forward": 3186,
  "persistent": 3187,
  "mitten": 3188,
  "cocoa": 3189,
  "stream": 3190,
  "envelo": 3191,
  "nod": 3192,
  "computer": 3193,
  "questions": 3194,
  "Mis": 3195,
  "feathers": 3196,
  "tic": 3197,
  "glove": 3198,
  "cano": 3199,
  "shrimp": 3200,
  "desk": 3201,
  "pigeon": 3202,
  "charming": 3203,
  "azz": 3204,
  "knot": 3205,
  "envious": 3206,
  "turkey": 3207,
  "stronger": 3208,
  "coins": 3209,
  "magnet": 3210,
  "raft": 3211,
  "comet": 3212,
  "tem": 3213,
  "boxes": 3214,
  "ctive": 3215,
  "aeroplane": 3216,
  "trunk": 3217,
  "wheat": 3218,
  "atch": 3219,
  "spun": 3220,
  "intelligent": 3221,
  "chubby": 3222,
  "restless": 3223,
  "seal": 3224,
  "carpet": 3225,
  "dreams": 3226,
  "Alice": 3227,
  "friendship": 3228,
  "half": 3229,
  "bandage": 3230,
  "salt": 3231,
  "Bet": 3232,
  "volcano": 3233,
  "vio": 3234,
  "broccoli": 3235,
  "crawl": 3236,
  "deliver": 3237,
  "onion": 3238,
  "mill": 3239,
  "sle": 3240,
  "acce": 3241,
  "week": 3242,
  "vine": 3243,
  "video": 3244,
  "roy": 3245,
  "track": 3246,
  "attra": 3247,
  "cauli": 3248,
  "ticket": 3249,
  "thief": 3250,
  "essie": 3251,
  "leo": 3252,
  "louder": 3253,
  "insect": 3254,
  "numbers": 3255,
  "yaw": 3256,
  "haircut": 3257,
  "sleeping": 3258,
  "judge": 3259,
  "alert": 3260,
  "spital": 3261,
  "eventually": 3262,
  "excite": 3263,
  "hospital": 3264,
  "pebble": 3265,
  "Pet": 3266,
  "destroy": 3267,
  "planet": 3268,
  "eraser": 3269,
  "returned": 3270,
  "pour": 3271,
  "graceful": 3272,
  "Lulu": 3273,
  "happening": 3274,
  "lying": 3275,
  "learning": 3276,
  "decide": 3277,
  "urse": 3278,
  "nicely": 3279,
  "leopar": 3280,
  "cauliflower": 3281,
  "competitive": 3282,
  "poem": 3283,
  "celebrate": 3284,
  "keeper": 3285,
  "hun": 3286,
  "sau": 3287,
  "curt": 3288,
  "lk": 3289,
  "ignorant": 3290,
  "peach": 3291,
  "soldier": 3292,
  "sausage": 3293,
  "attractive": 3294,
  "zzy": 3295,
  "parade": 3296,
  "curtain": 3297,
  "catter": 3298,
  "glasses": 3299,
  "dolphin": 3300,
  "violin": 3301,
  "Car": 3302,
  "atient": 3303,
  "travel": 3304,
  "compassionate": 3305,
  "mes": 3306,
  "deter": 3307,
  "scatter": 3308,
  "base": 3309,
  "wheels": 3310,
  "yach": 3311,
  "ator": 3312,
  "Bye": 3313,
  "ud": 3314,
  "barrel": 3315,
  "Is": 3316,
  "envelope": 3317,
  "motorcycle": 3318,
  "Pete": 3319,
  "firework": 3320,
  "sort": 3321,
  "pit": 3322,
  "cob": 3323,
  "bulb": 3324,
  "question": 3325,
  "trap": 3326,
  "pho": 3327,
  "ither": 3328,
  "oat": 3329,
  "bin": 3330,
  "bubble": 3331,
  "scooter": 3332,
  "photo": 3333,
  "float": 3334,
  "father": 3335,
  "shells": 3336,
  "determin": 3337,
  "teas": 3338,
  "needle": 3339,
  "leopard": 3340,
  "tern": 3341,
  "perform": 3342,
  "yacht": 3343,
  "pony": 3344,
  "cricket": 3345,
  "hook": 3346,
  "cel": 3347,
  "truth": 3348,
  "dom": 3349,
  "ador": 3350,
  "homes": 3351,
  "Birdy": 3352,
  "igator": 3353,
  "uncle": 3354,
  "rem": 3355,
  "bushes": 3356,
  "grown": 3357,
  "spell": 3358,
  "Tina": 3359,
  "cushion": 3360,
  "guard": 3361,
  "tire": 3362,
  "cooked": 3363,
  "packed": 3364,
  "adorable": 3365,
  "Sp": 3366,
  "skin": 3367,
  "chalk": 3368,
  "purse": 3369,
  "celery": 3370,
  "impatient": 3371,
  "themselves": 3372,
  "tray": 3373,
  "pengu": 3374,
  "snif": 3375,
  "walls": 3376,
  "speak": 3377,
  "lively": 3378,
  "distant": 3379,
  "alligator": 3380,
  "radish": 3381,
  "meat": 3382,
  "saying": 3383,
  "prune": 3384,
  "city": 3385,
  "post": 3386,
  "spinning": 3387,
  "forth": 3388,
  "counting": 3389,
  "illa": 3390,
  "bounced": 3391,
  "cleaning": 3392,
  "marry": 3393,
  "slept": 3394,
  "Tweet": 3395,
  "thus": 3396,
  "metal": 3397,
  "enthus": 3398,
  "behave": 3399,
  "wallet": 3400,
  "film": 3401,
  "skip": 3402,
  "wiped": 3403,
  "impro": 3404,
  "biggest": 3405,
  "oy": 3406,
  "scr": 3407,
  "vator": 3408,
  "Well": 3409,
  "shut": 3410,
  "pole": 3411,
  "steak": 3412,
  "laughs": 3413,
  "pattern": 3414,
  "elevator": 3415,
  "edge": 3416,
  "dive": 3417,
  "courage": 3418,
  "Susie": 3419,
  "armchair": 3420,
  "unlock": 3421,
  "isted": 3422,
  "skipped": 3423,
  "nal": 3424,
  "bags": 3425,
  "diary": 3426,
  "az": 3427,
  "distur": 3428,
  "screw": 3429,
  "affe": 3430,
  "tap": 3431,
  "journal": 3432,
  "showing": 3433,
  "club": 3434,
  "gathered": 3435,
  "ject": 3436,
  "earth": 3437,
  "nurse": 3438,
  "seem": 3439,
  "sweater": 3440,
  "stranger": 3441,
  "jellyfish": 3442,
  "bulance": 3443,
  "bump": 3444,
  "chain": 3445,
  "notebook": 3446,
  "mixer": 3447,
  "lights": 3448,
  "skull": 3449,
  "ambulance": 3450,
  "aged": 3451,
  "shield": 3452,
  "ito": 3453,
  "loudly": 3454,
  "Rose": 3455,
  "wire": 3456,
  "folder": 3457,
  "loop": 3458,
  "library": 3459,
  "buttons": 3460,
  "nament": 3461,
  "hunter": 3462,
  "playground": 3463,
  "trucks": 3464,
  "squito": 3465,
  "kne": 3466,
  "tummy": 3467,
  "pointing": 3468,
  "decorate": 3469,
  "falls": 3470,
  "station": 3471,
  "gri": 3472,
  "cupboard": 3473,
  "herb": 3474,
  "fed": 3475,
  "ornament": 3476,
  "modest": 3477,
  "knows": 3478,
  "lives": 3479,
  "mosquito": 3480,
  "giraffe": 3481,
  "Lo": 3482,
  "oby": 3483,
  "attic": 3484,
  "sailor": 3485,
  "yet": 3486,
  "whenever": 3487,
  "disappeared": 3488,
  "once": 3489,
  "package": 3490,
  "strawberry": 3491,
  "ceed": 3492,
  "ribb": 3493,
  "drop": 3494,
  "steps": 3495,
  "brothers": 3496,
  "pirate": 3497,
  "Sunny": 3498,
  "People": 3499,
  "tear": 3500,
  "kele": 3501,
  "keleton": 3502,
  "hipp": 3503,
  "hall": 3504,
  "cli": 3505,
  "Miss": 3506,
  "topus": 3507,
  "stack": 3508,
  "driving": 3509,
  "support": 3510,
  "hippo": 3511,
  "calling": 3512,
  "cable": 3513,
  "repe": 3514,
  "split": 3515,
  "football": 3516,
  "fre": 3517,
  "lood": 3518,
  "tho": 3519,
  "coal": 3520,
  "poke": 3521,
  "aff": 3522,
  "complete": 3523,
  "wishes": 3524,
  "root": 3525,
  "tripped": 3526,
  "added": 3527,
  "Betty": 3528,
  "kayak": 3529,
  "octopus": 3530,
  "obile": 3531,
  "succeed": 3532,
  "reading": 3533,
  "determined": 3534,
  "?\".": 3535,
  "tomobile": 3536,
  "scope": 3537,
  "mild": 3538,
  "suggest": 3539,
  "repair": 3540,
  "kindness": 3541,
  "thunder": 3542,
  "rolling": 3543,
  "utes": 3544,
  "unk": 3545,
  "iastic": 3546,
  "automobile": 3547,
  "complain": 3548,
  "sneeze": 3549,
  "enthusiastic": 3550,
  "uring": 3551,
  "math": 3552,
  "yoga": 3553,
  "carto": 3554,
  "inde": 3555,
  "adow": 3556,
  "gor": 3557,
  "five": 3558,
  "send": 3559,
  "growl": 3560,
  "hive": 3561,
  "htub": 3562,
  "flea": 3563,
  "tress": 3564,
  "meadow": 3565,
  "drawer": 3566,
  "golf": 3567,
  "tro": 3568,
  "bathtub": 3569,
  "means": 3570,
  "skeleton": 3571,
  "chess": 3572,
  "sity": 3573,
  "veil": 3574,
  "Toby": 3575,
  "spend": 3576,
  "cups": 3577,
  "shel": 3578,
  "flame": 3579,
  "Pippin": 3580,
  "Bessie": 3581,
  "glowing": 3582,
  "troph": 3583,
  "Mar": 3584,
  "Zip": 3585,
  "oyster": 3586,
  "penny": 3587,
  "itself": 3588,
  "drawings": 3589,
  "vet": 3590,
  "switch": 3591,
  "pine": 3592,
  "ache": 3593,
  "sunglasses": 3594,
  "Snow": 3595,
  "stume": 3596,
  "costume": 3597,
  "dess": 3598,
  "powder": 3599,
  ",\u201d": 3600,
  "pun": 3601,
  "muffin": 3602,
  "hedge": 3603,
  "pastry": 3604,
  "Did": 3605,
  "medal": 3606,
  "minutes": 3607,
  "makeup": 3608,
  "Un": 3609,
  "iron": 3610,
  "waffle": 3611,
  "aky": 3612,
  "handle": 3613,
  "maze": 3614,
  "telephone": 3615,
  "mattress": 3616,
  "son": 3617,
  "Rob": 3618,
  "shocked": 3619,
  "goal": 3620,
  "trophy": 3621,
  "knight": 3622,
  "spir": 3623,
  "missile": 3624,
  "separ": 3625,
  "Grandpa": 3626,
  "frame": 3627,
  "managed": 3628,
  "wife": 3629,
  "struc": 3630,
  "Spike": 3631,
  "eye": 3632,
  "zi": 3633,
  "magaz": 3634,
  "zebra": 3635,
  "ait": 3636,
  "grapes": 3637,
  "file": 3638,
  "camp": 3639,
  "cobweb": 3640,
  "rushed": 3641,
  "message": 3642,
  "wool": 3643,
  "bathe": 3644,
  "microphone": 3645,
  "chor": 3646,
  "leash": 3647,
  "either": 3648,
  "weep": 3649,
  "vend": 3650,
  "barking": 3651,
  "view": 3652,
  "basketball": 3653,
  "ature": 3654,
  "safely": 3655,
  "staff": 3656,
  "fee": 3657,
  "whist": 3658,
  "tol": 3659,
  "washer": 3660,
  "slides": 3661,
  "mp": 3662,
  "trem": 3663,
  "istol": 3664,
  "offee": 3665,
  "bananas": 3666,
  "hoc": 3667,
  "giggled": 3668,
  "those": 3669,
  "hockey": 3670,
  "gorilla": 3671,
  "Wait": 3672,
  "cooler": 3673,
  "urch": 3674,
  "spear": 3675,
  "mint": 3676,
  "fis": 3677,
  "early": 3678,
  "vendor": 3679,
  "Mrs": 3680,
  "marched": 3681,
  "tion": 3682,
  "grandpa": 3683,
  "flour": 3684,
  "Al": 3685,
  "hic": 3686,
  "sty": 3687,
  "remain": 3688,
  "hotel": 3689,
  "dessert": 3690,
  "gain": 3691,
  "pas": 3692,
  "cell": 3693,
  "vehic": 3694,
  "may": 3695,
  "ilot": 3696,
  "often": 3697,
  "Would": 3698,
  "church": 3699,
  "cooking": 3700,
  "uel": 3701,
  "pee": 3702,
  "ey": 3703,
  "otter": 3704,
  "fireman": 3705,
  "Kim": 3706,
  "tools": 3707,
  "organize": 3708,
  "pistol": 3709,
  "pretending": 3710,
  "dishwasher": 3711,
  "anchor": 3712,
  "sight": 3713,
  "temple": 3714,
  "thinking": 3715,
  "battery": 3716,
  "oil": 3717,
  "opens": 3718,
  "Teddy": 3719,
  "umb": 3720,
  "laser": 3721,
  "realised": 3722,
  "sne": 3723,
  "patch": 3724,
  "hours": 3725,
  "sandbox": 3726,
  "robe": 3727,
  "pilot": 3728,
  "spirit": 3729,
  "brea": 3730,
  "whip": 3731,
  "buck": 3732,
  "grill": 3733,
  "fac": 3734,
  "trash": 3735,
  "baseball": 3736,
  "suppl": 3737,
  "fort": 3738,
  "factory": 3739,
  "rhin": 3740,
  "short": 3741,
  "avail": 3742,
  "cardboard": 3743,
  "lotion": 3744,
  "wardro": 3745,
  "valu": 3746,
  "wardrobe": 3747,
  "ugged": 3748,
  "check": 3749,
  "hanging": 3750,
  "seum": 3751,
  "museum": 3752,
  "coffee": 3753,
  "blackboard": 3754,
  "shrink": 3755,
  "towers": 3756,
  "excitement": 3757,
  "reward": 3758,
  "picking": 3759,
  "passport": 3760,
  "napkin": 3761,
  "penguin": 3762,
  "dreamed": 3763,
  "quit": 3764,
  "Before": 3765,
  "xy": 3766,
  "available": 3767,
  "fauce": 3768,
  "laun": 3769,
  "stumbled": 3770,
  "igloo": 3771,
  "aroo": 3772,
  "angaroo": 3773,
  "juicy": 3774,
  "allowed": 3775,
  "holds": 3776,
  "tornado": 3777,
  "already": 3778,
  "Everywhere": 3779,
  "sla": 3780,
  "novel": 3781,
  "beep": 3782,
  "fingers": 3783,
  "htray": 3784,
  "size": 3785,
  "hanger": 3786,
  "chim": 3787,
  "faucet": 3788,
  "ense": 3789,
  "laundry": 3790,
  "chimney": 3791,
  "oak": 3792,
  "fisher": 3793,
  "telling": 3794,
  "kangaroo": 3795,
  "ately": 3796,
  "gging": 3797,
  "aid": 3798,
  "mummy": 3799,
  "cherries": 3800,
  "mule": 3801,
  "practice": 3802,
  "notice": 3803,
  "spilled": 3804,
  "imagine": 3805,
  "reinde": 3806,
  "wander": 3807,
  "microscope": 3808,
  "enjoying": 3809,
  "hut": 3810,
  "snap": 3811,
  "por": 3812,
  "Mandy": 3813,
  "hurry": 3814,
  "sub": 3815,
  "anda": 3816,
  "weigh": 3817,
  "Co": 3818,
  "fastest": 3819,
  "fireplace": 3820,
  "magazine": 3821,
  "ocero": 3822,
  "bel": 3823,
  "cabinet": 3824,
  "cheer": 3825,
  "listening": 3826,
  "doors": 3827,
  "ashtray": 3828,
  "bathrobe": 3829,
  "rake": 3830,
  "umber": 3831,
  "cows": 3832,
  "improve": 3833,
  "palace": 3834,
  "reindeer": 3835,
  "arian": 3836,
  "colour": 3837,
  "falling": 3838,
  "oceros": 3839,
  "skirt": 3840,
  "discovered": 3841,
  "blin": 3842,
  "enny": 3843,
  "stared": 3844,
  "roared": 3845,
  "Dolly": 3846,
  "miner": 3847,
  "memor": 3848,
  "silver": 3849,
  "trail": 3850,
  "bill": 3851,
  "stretched": 3852,
  "vision": 3853,
  "iction": 3854,
  "toile": 3855,
  "fog": 3856,
  "happier": 3857,
  "taller": 3858,
  "oats": 3859,
  "ictionary": 3860,
  "object": 3861,
  "valuable": 3862,
  "fisherman": 3863,
  "shamp": 3864,
  "shampoo": 3865,
  "ire": 3866,
  "holes": 3867,
  "opera": 3868,
  "boots": 3869,
  "offered": 3870,
  "rhinoceros": 3871,
  "toilet": 3872,
  "climbing": 3873,
  "names": 3874,
  "vice": 3875,
  "Frog": 3876,
  "mineral": 3877,
  "perfu": 3878,
  "fuel": 3879,
  "zipper": 3880,
  "gn": 3881,
  "Or": 3882,
  "jewelry": 3883,
  "reverse": 3884,
  "jokes": 3885,
  "television": 3886,
  "sym": 3887,
  "axe": 3888,
  "raz": 3889,
  "calend": 3890,
  "stops": 3891,
  "perfume": 3892,
  "jumps": 3893,
  "sparkly": 3894,
  "bury": 3895,
  "pressed": 3896,
  "razor": 3897,
  "zer": 3898,
  "super": 3899,
  "rece": 3900,
  "bol": 3901,
  "dictionary": 3902,
  "attach": 3903,
  "sses": 3904,
  "int": 3905,
  "neat": 3906,
  "creek": 3907,
  "popped": 3908,
  "zag": 3909,
  "calendar": 3910,
  "gasped": 3911,
  "resist": 3912,
  "tuna": 3913,
  "Pandy": 3914,
  "papers": 3915,
  "unpack": 3916,
  "symbol": 3917,
  "subway": 3918,
  "pinch": 3919,
  "letters": 3920,
  "gear": 3921,
  "freezer": 3922,
  "chose": 3923,
  "Ouch": 3924,
  "spoke": 3925,
  "anyway": 3926,
  "bikes": 3927,
  "helper": 3928,
  "porch": 3929,
  "ival": 3930,
  "wic": 3931,
  "wiches": 3932,
  "tightly": 3933,
  "aur": 3934,
  "shaking": 3935,
  "ended": 3936,
  "sandwiches": 3937,
  "billboard": 3938,
  "incl": 3939,
  "igzag": 3940,
  "against": 3941,
  "restaur": 3942,
  "newspaper": 3943,
  "stickers": 3944,
  "blouse": 3945,
  "bookcase": 3946,
  "swinging": 3947,
  "vehicle": 3948,
  "nature": 3949,
  "squirrels": 3950,
  "belongs": 3951,
  "lic": 3952,
  "growing": 3953,
  "buckle": 3954,
  "butterflies": 3955,
  "restaurant": 3956,
  "gym": 3957,
  "swamp": 3958,
  "stirred": 3959,
  "mustache": 3960,
  "cards": 3961,
  "hate": 3962,
  "lightning": 3963,
  "fest": 3964,
  "reco": 3965,
  "Ellie": 3966,
  "distance": 3967,
  "discover": 3968,
  "disturb": 3969,
  "recogn": 3970,
  "poon": 3971,
  "sof": 3972,
  "beef": 3973,
  "festival": 3974,
  "doesn": 3975,
  "ik": 3976,
  "musician": 3977,
  "advice": 3978,
  "cted": 3979,
  "rubber": 3980,
  "noon": 3981,
  "drain": 3982,
  "alarm": 3983,
  "Dave": 3984,
  "sweetie": 3985,
  "crib": 3986,
  "surf": 3987,
  "model": 3988,
  "comm": 3989,
  "separate": 3990,
  "tutor": 3991,
  "blueberries": 3992,
  "apr": 3993,
  "circles": 3994,
  "sofa": 3995,
  "breakfast": 3996,
  "arry": 3997,
  "shelter": 3998,
  "asis": 3999,
  "mall": 4000,
  "airport": 4001,
  "tease": 4002,
  "Red": 4003,
  "ured": 4004,
  "Bubb": 4005,
  "ummer": 4006,
  "These": 4007,
  "Spe": 4008,
  "knob": 4009,
  "bookshelf": 4010,
  "frogs": 4011,
  "lands": 4012,
  "riding": 4013,
  "junk": 4014,
  "Johnny": 4015,
  "pleased": 4016,
  "lend": 4017,
  "Bill": 4018,
  "oasis": 4019,
  "wipe": 4020,
  "display": 4021,
  "soil": 4022,
  "resc": 4023,
  "squeeze": 4024,
  "rescue": 4025,
  "ahead": 4026,
  "pedal": 4027,
  "rail": 4028,
  "leaving": 4029,
  "ination": 4030,
  "Bow": 4031,
  "quiz": 4032,
  "painter": 4033,
  "chance": 4034,
  "poked": 4035,
  "tub": 4036,
  "peeked": 4037,
  "lumber": 4038,
  "trains": 4039,
  "disappear": 4040,
  "knock": 4041,
  "extra": 4042,
  "refused": 4043,
  "ometer": 4044,
  "mometer": 4045,
  "dar": 4046,
  "point": 4047,
  "repeat": 4048,
  "rules": 4049,
  "happens": 4050,
  "sounded": 4051,
  "ga": 4052,
  "Boun": 4053,
  "winter": 4054,
  "dancer": 4055,
  "birdcage": 4056,
  "ost": 4057,
  "waste": 4058,
  "teaspoon": 4059,
  "weather": 4060,
  "comfort": 4061,
  "theater": 4062,
  "reef": 4063,
  "carrying": 4064,
  "invite": 4065,
  "trade": 4066,
  "swung": 4067,
  "uniform": 4068,
  "cliff": 4069,
  "Have": 4070,
  "accept": 4071,
  "lawn": 4072,
  "Jazz": 4073,
  "lab": 4074,
  "leaned": 4075,
  "uage": 4076,
  "anguage": 4077,
  "admi": 4078,
  "oph": 4079,
  "planes": 4080,
  "dreaming": 4081,
  "Soph": 4082,
  "task": 4083,
  "Lee": 4084,
  "accidentally": 4085,
  "pastel": 4086,
  "language": 4087,
  "remove": 4088,
  "erator": 4089,
  "suff": 4090,
  "peek": 4091,
  "license": 4092,
  "twir": 4093,
  "panda": 4094,
  "Buzzy": 4095,
  "frig": 4096,
  "frigerator": 4097,
  "mas": 4098,
  "summer": 4099,
  "Pat": 4100,
  "blinked": 4101,
  "starts": 4102,
  "refrigerator": 4103,
  "anywhere": 4104,
  "!\".": 4105,
  "imagined": 4106,
  "grand": 4107,
  "Big": 4108,
  "shower": 4109,
  "adm": 4110,
  "caring": 4111,
  "ceiling": 4112,
  "classroom": 4113,
  "stable": 4114,
  "admire": 4115,
  "thermometer": 4116,
  "bove": 4117,
  "missing": 4118,
  "Whe": 4119,
  "Sun": 4120,
  "warned": 4121,
  "monkeys": 4122,
  "wine": 4123,
  "Ru": 4124,
  "ium": 4125,
  "brick": 4126,
  "Lola": 4127,
  "above": 4128,
  "enter": 4129,
  "aced": 4130,
  "respectful": 4131,
  "Binky": 4132,
  "cudd": 4133,
  "problems": 4134,
  "strugg": 4135,
  "chasing": 4136,
  "Freddy": 4137,
  "apron": 4138,
  "lawy": 4139,
  "iture": 4140,
  "urniture": 4141,
  "reg": 4142,
  "freeze": 4143,
  "uggage": 4144,
  "furniture": 4145,
  "zoomed": 4146,
  "frowned": 4147,
  "handed": 4148,
  "pages": 4149,
  "luggage": 4150,
  "bent": 4151,
  "label": 4152,
  "Eventually": 4153,
  "aked": 4154,
  "sunset": 4155,
  "jail": 4156,
  "ostrich": 4157,
  "alley": 4158,
  "mistakes": 4159,
  "ison": 4160,
  "suggested": 4161,
  "windows": 4162,
  "older": 4163,
  "lions": 4164,
  "cur": 4165,
  "ribbon": 4166,
  "shouts": 4167,
  "grape": 4168,
  "spoil": 4169,
  "Ge": 4170,
  "unite": 4171,
  "structure": 4172,
  "chamber": 4173,
  "fixing": 4174,
  "delay": 4175,
  "fant": 4176,
  "finds": 4177,
  "searching": 4178,
  "Geor": 4179,
  "tick": 4180,
  "fought": 4181,
  "surre": 4182,
  "lawyer": 4183,
  "yield": 4184,
  "ady": 4185,
  "brightly": 4186,
  "meeting": 4187,
  "choice": 4188,
  "incre": 4189,
  "surprises": 4190,
  "terin": 4191,
  "favour": 4192,
  "adium": 4193,
  "fresh": 4194,
  "terinarian": 4195,
  "stadium": 4196,
  "veterinarian": 4197,
  "proudly": 4198,
  "iki": 4199,
  "veal": 4200,
  "chairs": 4201,
  "ations": 4202,
  "Carl": 4203,
  "sadly": 4204,
  "Olive": 4205,
  "fro": 4206,
  "Speedy": 4207,
  "introd": 4208,
  "puddles": 4209,
  "reveal": 4210,
  "ranch": 4211,
  "argue": 4212,
  "Char": 4213,
  "admired": 4214,
  "steam": 4215,
  "favourite": 4216,
  "excitedly": 4217,
  "saving": 4218,
  "grabs": 4219,
  "Mike": 4220,
  "human": 4221,
  "Lilly": 4222,
  "leak": 4223,
  "oh": 4224,
  "Bubbles": 4225,
  "George": 4226,
  "pushing": 4227,
  "appla": 4228,
  "ized": 4229,
  "recomm": 4230,
  "reminded": 4231,
  "regret": 4232,
  "ues": 4233,
  "Wo": 4234,
  "weap": 4235,
  "wigg": 4236,
  "apo": 4237,
  "cuss": 4238,
  "castles": 4239,
  "putting": 4240,
  "valley": 4241,
  "Wel": 4242,
  "evening": 4243,
  "matches": 4244,
  "forgave": 4245,
  "Welcome": 4246,
  "supply": 4247,
  "sneezed": 4248,
  "pup": 4249,
  "vy": 4250,
  "chan": 4251,
  "discuss": 4252,
  "vroom": 4253,
  "spade": 4254,
  "cared": 4255,
  "plates": 4256,
  "Pau": 4257,
  "ignore": 4258,
  "harbor": 4259,
  "prepare": 4260,
  "country": 4261,
  "pulls": 4262,
  "Zoomy": 4263,
  "replace": 4264,
  "restore": 4265,
  "plastic": 4266,
  "raise": 4267,
  "sniffed": 4268,
  "given": 4269,
  "meas": 4270,
  "shovel": 4271,
  "Ho": 4272,
  "cartoon": 4273,
  "prevent": 4274,
  "mystery": 4275,
  "socks": 4276,
  "Kiki": 4277,
  "Because": 4278,
  "Ready": 4279,
  "Under": 4280,
  "wre": 4281,
  "sticker": 4282,
  "sudden": 4283,
  "slipper": 4284,
  "ience": 4285,
  "ighted": 4286,
  "kinds": 4287,
  "slippery": 4288,
  "player": 4289,
  "panic": 4290,
  "hoping": 4291,
  "ricane": 4292,
  "shone": 4293,
  "gro": 4294,
  "rained": 4295,
  "Boo": 4296,
  "superhero": 4297,
  "ase": 4298,
  "delighted": 4299,
  "Yay": 4300,
  "surrender": 4301,
  "chickens": 4302,
  "shoulder": 4303,
  "colourful": 4304,
  "gran": 4305,
  "claw": 4306,
  "Yuck": 4307,
  "softly": 4308,
  "liday": 4309,
  "holiday": 4310,
  "Dog": 4311,
  "throwing": 4312,
  "ines": 4313,
  "shakes": 4314,
  "barks": 4315,
  "kneel": 4316,
  "sunrise": 4317,
  "keeping": 4318,
  "shivering": 4319,
  "applaud": 4320,
  "ason": 4321,
  "pushes": 4322,
  "Alex": 4323,
  "thanks": 4324,
  "ude": 4325,
  "suffer": 4326,
  "image": 4327,
  "points": 4328,
  "infant": 4329,
  "beg": 4330,
  "tip": 4331,
  "lect": 4332,
  "Cl": 4333,
  "expec": 4334,
  "Danny": 4335,
  "giggle": 4336,
  "Grace": 4337,
  "Shar": 4338,
  "imed": 4339,
  "copper": 4340,
  "heads": 4341,
  "End": 4342,
  "apolog": 4343,
  "smells": 4344,
  "Happ": 4345,
  "dear": 4346,
  "Bee": 4347,
  "provide": 4348,
  "chanic": 4349,
  "warning": 4350,
  "dishes": 4351,
  "hurricane": 4352,
  "cherry": 4353,
  "menu": 4354,
  "thumb": 4355,
  "second": 4356,
  "meowed": 4357,
  "brighter": 4358,
  "Joey": 4359,
  "ince": 4360,
  "event": 4361,
  "poison": 4362,
  "mechanic": 4363,
  "cakes": 4364,
  "weapon": 4365,
  "sprayed": 4366,
  "letting": 4367,
  "laught": 4368,
  "Hoppy": 4369,
  "laughter": 4370,
  "clapping": 4371,
  "rec": 4372,
  "feelings": 4373,
  "hy": 4374,
  "score": 4375,
  "icky": 4376,
  "splashing": 4377,
  "rooms": 4378,
  "universe": 4379,
  "iest": 4380,
  "navy": 4381,
  "Happy": 4382,
  "sticky": 4383,
  "Sophie": 4384,
  "Gig": 4385,
  "perm": 4386,
  "Paul": 4387,
  "Woof": 4388,
  "unhappy": 4389,
  "cation": 4390,
  "Gigi": 4391,
  "dare": 4392,
  "massage": 4393,
  "Sque": 4394,
  "greedy": 4395,
  "coats": 4396,
  "ener": 4397,
  "Su": 4398,
  "bend": 4399,
  "alive": 4400,
  "Qu": 4401,
  "mand": 4402,
  "breaks": 4403,
  "crash": 4404,
  "demand": 4405,
  "sie": 4406,
  "Hen": 4407,
  "invit": 4408,
  "Annie": 4409,
  "ating": 4410,
  "wreck": 4411,
  "swee": 4412,
  "sigh": 4413,
  "trusted": 4414,
  "eaten": 4415,
  "somewhere": 4416,
  "punish": 4417,
  "permit": 4418,
  "Mag": 4419,
  "examine": 4420,
  "Charlie": 4421,
  "skill": 4422,
  "parts": 4423,
  "versity": 4424,
  "delight": 4425,
  "brain": 4426,
  "mention": 4427,
  "raining": 4428,
  "chirp": 4429,
  "Henry": 4430,
  "slip": 4431,
  "erc": 4432,
  "nes": 4433,
  "throws": 4434,
  "toe": 4435,
  "jogged": 4436,
  "strip": 4437,
  "starting": 4438,
  "university": 4439,
  "pirates": 4440,
  "drops": 4441,
  "request": 4442,
  "flapped": 4443,
  "Snowy": 4444,
  "Sk": 4445,
  "sparkled": 4446,
  "boo": 4447,
  "streng": 4448,
  "steel": 4449,
  "bumped": 4450,
  "yawned": 4451,
  "scold": 4452,
  "equ": 4453,
  "myself": 4454,
  "strength": 4455,
  "shrugged": 4456,
  "theart": 4457,
  "Lucky": 4458,
  "paid": 4459,
  "exerc": 4460,
  "pigs": 4461,
  "scratch": 4462,
  "tracks": 4463,
  "impressed": 4464,
  "upstairs": 4465,
  "prayed": 4466,
  "danger": 4467,
  "crossed": 4468,
  "squeezed": 4469,
  "bouncing": 4470,
  "breathe": 4471,
  "rhy": 4472,
  "rabbits": 4473,
  "badly": 4474,
  "leather": 4475,
  "expect": 4476,
  "snugg": 4477,
  "..": 4478,
  "tide": 4479,
  "choo": 4480,
  "Elly": 4481,
  "Finny": 4482,
  "ix": 4483,
  "recommend": 4484,
  "minute": 4485,
  "Finn": 4486,
  "history": 4487,
  "tour": 4488,
  "espec": 4489,
  "bears": 4490,
  "claws": 4491,
  "sweetheart": 4492,
  "nation": 4493,
  "flood": 4494,
  "heat": 4495,
  "content": 4496,
  "stud": 4497,
  "settle": 4498,
  "thm": 4499,
  "vacation": 4500,
  "observe": 4501,
  "strawberries": 4502,
  "explored": 4503,
  "yawn": 4504,
  "mare": 4505,
  "sandcastle": 4506,
  "Coco": 4507,
  "horses": 4508,
  "neighb": 4509,
  "ially": 4510,
  "believed": 4511,
  "checked": 4512,
  "network": 4513,
  "Fox": 4514,
  "inking": 4515,
  "placed": 4516,
  "cheek": 4517,
  "offer": 4518,
  "Tilly": 4519,
  "Harry": 4520,
  "bling": 4521,
  "First": 4522,
  "easily": 4523,
  "Not": 4524,
  "safar": 4525,
  "mission": 4526,
  "spots": 4527,
  "nightmare": 4528,
  "ffic": 4529,
  "ween": 4530,
  "energy": 4531,
  "imagination": 4532,
  "blueberry": 4533,
  "between": 4534,
  "daisy": 4535,
  "soak": 4536,
  "waving": 4537,
  "twisted": 4538,
  "Penny": 4539,
  "safari": 4540,
  "rhythm": 4541,
  "counter": 4542,
  "quake": 4543,
  "Pa": 4544,
  "writing": 4545,
  "baking": 4546,
  "Owl": 4547,
  "blowing": 4548,
  "entered": 4549,
  "insisted": 4550,
  "muscle": 4551,
  "palm": 4552,
  "beauty": 4553,
  "stomach": 4554,
  "bother": 4555,
  "prunes": 4556,
  "ipment": 4557,
  "poppy": 4558,
  "hills": 4559,
  "equipment": 4560,
  "ddy": 4561,
  "especially": 4562,
  "burned": 4563,
  "cky": 4564,
  "sir": 4565,
  "ingred": 4566,
  "calls": 4567,
  "earthquake": 4568,
  "ingredient": 4569,
  "ignored": 4570,
  "nobody": 4571,
  "tug": 4572,
  "hood": 4573,
  "exper": 4574,
  "Maria": 4575,
  "Whenever": 4576,
  "Mill": 4577,
  "afternoon": 4578,
  "Goodbye": 4579,
  "xygen": 4580,
  "hearts": 4581,
  "increase": 4582,
  "Zara": 4583,
  "lemonade": 4584,
  "learnt": 4585,
  "Ju": 4586,
  "napped": 4587,
  "tremble": 4588,
  "backpack": 4589,
  "mailman": 4590,
  "whistled": 4591,
  "shopkeeper": 4592,
  "yucky": 4593,
  "moves": 4594,
  "sting": 4595,
  "introduce": 4596,
  "strike": 4597,
  "beans": 4598,
  "lemons": 4599,
  "ris": 4600,
  "include": 4601,
  "Mitten": 4602,
  "floated": 4603,
  "folded": 4604,
  "Wed": 4605,
  "Wednes": 4606,
  "Froggy": 4607,
  "traffic": 4608,
  "planned": 4609,
  "Sharing": 4610,
  "rested": 4611,
  "Mittens": 4612,
  "Squeaky": 4613,
  "wisdom": 4614,
  "price": 4615,
  "racing": 4616,
  "Sur": 4617,
  "luck": 4618,
  "Sandy": 4619,
  "wags": 4620,
  "excla": 4621,
  "pitch": 4622,
  "mama": 4623,
  "Sh": 4624,
  "following": 4625,
  "Bounce": 4626,
  "encourage": 4627,
  "lip": 4628,
  "heel": 4629,
  "gling": 4630,
  "served": 4631,
  "below": 4632,
  "crow": 4633,
  "weight": 4634,
  "Gre": 4635,
  "slap": 4636,
  "buried": 4637,
  "exclaimed": 4638,
  "pted": 4639,
  "recognize": 4640,
  "follows": 4641,
  "ingredients": 4642,
  "prints": 4643,
  "candles": 4644,
  "bey": 4645,
  "allow": 4646,
  "marbles": 4647,
  "Millie": 4648,
  "urge": 4649,
  "Kate": 4650,
  "Remember": 4651,
  "oper": 4652,
  "apart": 4653,
  "growled": 4654,
  "Wednesday": 4655,
  "bang": 4656,
  "ptain": 4657,
  "closely": 4658,
  "hopes": 4659,
  "teaching": 4660,
  "Baby": 4661,
  "chore": 4662,
  "ler": 4663,
  "tch": 4664,
  "May": 4665,
  "zigzag": 4666,
  "James": 4667,
  "Follow": 4668,
  "pulling": 4669,
  "digg": 4670,
  "bouncy": 4671,
  "dresses": 4672,
  "further": 4673,
  "chewed": 4674,
  "digging": 4675,
  "winning": 4676,
  "Pinky": 4677,
  "riage": 4678,
  "twis": 4679,
  "ifi": 4680,
  "solved": 4681,
  "Pip": 4682,
  "cery": 4683,
  "gie": 4684,
  "shouting": 4685,
  "grocery": 4686,
  "twisty": 4687,
  "attent": 4688,
  "peanuts": 4689,
  "puzzles": 4690,
  "Bluey": 4691,
  "scrat": 4692,
  "Tony": 4693,
  "worms": 4694,
  "chores": 4695,
  "dressed": 4696,
  "operation": 4697,
  "snail": 4698,
  "spike": 4699,
  "hon": 4700,
  "acorns": 4701,
  "izes": 4702,
  "Papa": 4703,
  "deeper": 4704,
  "Fifi": 4705,
  "planted": 4706,
  "exercise": 4707,
  "wink": 4708,
  "attention": 4709,
  "lecture": 4710,
  "Ruby": 4711,
  "oxygen": 4712,
  "underground": 4713,
  "quite": 4714,
  "creatures": 4715,
  "marriage": 4716,
  "struggle": 4717,
  "Everything": 4718,
  "argu": 4719,
  "washing": 4720,
  "vanished": 4721,
  "hurting": 4722,
  "gifts": 4723,
  "invitation": 4724,
  "licks": 4725,
  "snuggled": 4726,
  "jazz": 4727,
  "petal": 4728,
  "quietly": 4729,
  "disagree": 4730,
  "awe": 4731,
  "blood": 4732,
  "Liz": 4733,
  "elephants": 4734,
  "reci": 4735,
  "fallen": 4736,
  "release": 4737,
  "dried": 4738,
  "poss": 4739,
  "sizes": 4740,
  "landscape": 4741,
  "sprink": 4742,
  "neighbour": 4743,
  "exit": 4744,
  "mice": 4745,
  "Tues": 4746,
  "appreci": 4747,
  "Sunday": 4748,
  "sailing": 4749,
  "eagerly": 4750,
  "ooped": 4751,
  "paused": 4752,
  "vanish": 4753,
  "Uncle": 4754,
  "worth": 4755,
  "Surpr": 4756,
  "aking": 4757,
  "ashion": 4758,
  "style": 4759,
  "Ste": 4760,
  "shined": 4761,
  "reaches": 4762,
  "mm": 4763,
  "atta": 4764,
  "kisses": 4765,
  "Sm": 4766,
  "bricks": 4767,
  "ideas": 4768,
  "plays": 4769,
  "Wigg": 4770,
  "wob": 4771,
  "balan": 4772,
  "fireworks": 4773,
  "seeing": 4774,
  "Yum": 4775,
  "ucked": 4776,
  "blink": 4777,
  "accepted": 4778,
  "fashion": 4779,
  "stra": 4780,
  "memory": 4781,
  "muddy": 4782,
  "resp": 4783,
  "married": 4784,
  "ups": 4785,
  "Each": 4786,
  "tomatoes": 4787,
  "reeze": 4788,
  "Rosie": 4789,
  "nce": 4790,
  "wagging": 4791,
  "wandered": 4792,
  "manage": 4793,
  "Clara": 4794,
  "Watch": 4795,
  "gloves": 4796,
  "captain": 4797,
  "rang": 4798,
  "receive": 4799,
  "pillows": 4800,
  "lick": 4801,
  "during": 4802,
  "zipped": 4803,
  "petals": 4804,
  "watered": 4805,
  "Mo": 4806,
  "famil": 4807,
  "meow": 4808,
  "God": 4809,
  "couraged": 4810,
  "pinched": 4811,
  "brings": 4812,
  "Ke": 4813,
  "Spark": 4814,
  "printer": 4815,
  "shot": 4816,
  "destroyed": 4817,
  "treasures": 4818,
  "bones": 4819,
  "Che": 4820,
  "hers": 4821,
  "Tuesday": 4822,
  "catching": 4823,
  "hadn": 4824,
  "worse": 4825,
  "hi": 4826,
  "beam": 4827,
  "Wiggly": 4828,
  "hits": 4829,
  "aches": 4830,
  "xu": 4831,
  "scattered": 4832,
  "velvet": 4833,
  "memories": 4834,
  "sorts": 4835,
  "toes": 4836,
  "Kat": 4837,
  "scolded": 4838,
  "pears": 4839,
  "signs": 4840,
  "oranges": 4841,
  "Mor": 4842,
  "snapped": 4843,
  "sits": 4844,
  "seats": 4845,
  "gazed": 4846,
  "raised": 4847,
  "pies": 4848,
  "acked": 4849,
  "bby": 4850,
  "sliding": 4851,
  "luxu": 4852,
  "Beep": 4853,
  "baked": 4854,
  "Wally": 4855,
  "easier": 4856,
  "King": 4857,
  "skills": 4858,
  "llen": 4859,
  "rect": 4860,
  "climbs": 4861,
  "possible": 4862,
  "twirled": 4863,
  "ccer": 4864,
  "blankets": 4865,
  "forgotten": 4866,
  "omed": 4867,
  "zero": 4868,
  "sterday": 4869,
  "golden": 4870,
  "difference": 4871,
  "wed": 4872,
  "cutting": 4873,
  "kitty": 4874,
  "olive": 4875,
  "Ha": 4876,
  "Surprise": 4877,
  "season": 4878,
  "nowhere": 4879,
  "Tuna": 4880,
  "bru": 4881,
  "lung": 4882,
  "soccer": 4883,
  "ys": 4884,
  "dared": 4885,
  "emer": 4886,
  "bites": 4887,
  "Slow": 4888,
  "Zo": 4889,
  "beha": 4890,
  "Maggie": 4891,
  "celebrated": 4892,
  "Hop": 4893,
  "ah": 4894,
  "Out": 4895,
  "padd": 4896,
  "nies": 4897,
  "straight": 4898,
  "sters": 4899,
  "west": 4900,
  "unlocked": 4901,
  "Moral": 4902,
  "sorting": 4903,
  "bleed": 4904,
  "collected": 4905,
  "comed": 4906,
  "welcomed": 4907,
  "stitch": 4908,
  "spoons": 4909,
  "visited": 4910,
  "Ok": 4911,
  "jogging": 4912,
  "medi": 4913,
  "warn": 4914,
  "tore": 4915,
  "buzz": 4916,
  "recei": 4917,
  "isn": 4918,
  "mediately": 4919,
  "bur": 4920,
  "ruin": 4921,
  "trave": 4922,
  "winner": 4923,
  "luxury": 4924,
  "since": 4925,
  "ipping": 4926,
  "fortun": 4927,
  "Din": 4928,
  "bab": 4929,
  "imple": 4930,
  "prepar": 4931,
  "Meow": 4932,
  "attached": 4933,
  "weeping": 4934,
  "Suzy": 4935,
  "marching": 4936,
  "simple": 4937,
  "shouldn": 4938,
  "Both": 4939,
  "guessed": 4940,
  "pets": 4941,
  "created": 4942,
  "Smith": 4943,
  "stuffed": 4944,
  "vic": 4945,
  "waist": 4946,
  "urged": 4947,
  "bowed": 4948,
  "selling": 4949,
  "Someone": 4950,
  "floating": 4951,
  "kingdom": 4952,
  "olives": 4953,
  "Always": 4954,
  "kicking": 4955,
  "punished": 4956,
  "Dr": 4957,
  "printed": 4958,
  "muscles": 4959,
  "jewels": 4960,
  "uses": 4961,
  "beds": 4962,
  "understanding": 4963,
  "melted": 4964,
  "lined": 4965,
  "lets": 4966,
  "perfor": 4967,
  "slice": 4968,
  "grin": 4969,
  "offic": 4970,
  "collection": 4971,
  "measured": 4972,
  "fortunately": 4973,
  "trapped": 4974,
  "omeday": 4975,
  "grant": 4976,
  "gers": 4977,
  "acted": 4978,
  "encouraged": 4979,
  "iers": 4980,
  "received": 4981,
  "waffles": 4982,
  "resu": 4983,
  "sip": 4984,
  "patterns": 4985,
  "mouths": 4986,
  "ents": 4987,
  "kins": 4988,
  "hest": 4989,
  "peaches": 4990,
  "breeze": 4991,
  "six": 4992,
  "soldiers": 4993,
  "chy": 4994,
  "someday": 4995,
  "potatoes": 4996,
  "Stay": 4997,
  "result": 4998,
  "pupil": 4999,
  "Toto": 5000,
  "drinks": 5001,
  "presents": 5002,
  "experience": 5003,
  "flap": 5004,
  "none": 5005,
  "ging": 5006,
  "Rocky": 5007,
  "appro": 5008,
  "surround": 5009,
  "victory": 5010,
  "voices": 5011,
  "drinking": 5012,
  "breaking": 5013,
  "relaxed": 5014,
  "paints": 5015,
  "fetch": 5016,
  "twink": 5017,
  "hurried": 5018,
  "tongue": 5019,
  "stumes": 5020,
  "Chicky": 5021,
  "Pepper": 5022,
  "bak": 5023,
  "costumes": 5024,
  "mentioned": 5025,
  "teasing": 5026,
  "whistling": 5027,
  "begged": 5028,
  "permission": 5029,
  "disagreed": 5030,
  "flat": 5031,
  "pearl": 5032,
  "Like": 5033,
  "lips": 5034,
  "cus": 5035,
  "skipping": 5036,
  "Its": 5037,
  "fishing": 5038,
  "sniff": 5039,
  "highest": 5040,
  "sorted": 5041,
  "ringing": 5042,
  "watches": 5043,
  "works": 5044,
  "aded": 5045,
  "tonight": 5046,
  "opin": 5047,
  "shadows": 5048,
  "crun": 5049,
  "Sky": 5050,
  "suppo": 5051,
  "perfectly": 5052,
  "immediately": 5053,
  "warmth": 5054,
  "herbs": 5055,
  "ruck": 5056,
  "Milly": 5057,
  "icing": 5058,
  "obey": 5059,
  "remained": 5060,
  "mbers": 5061,
  "Our": 5062,
  "sett": 5063,
  "sneak": 5064,
  "Dino": 5065,
  "emergen": 5066,
  "kneeled": 5067,
  "napping": 5068,
  "contest": 5069,
  "lines": 5070,
  "headed": 5071,
  "east": 5072,
  "ago": 5073,
  "cartoons": 5074,
  "colours": 5075,
  "stamps": 5076,
  "\",": 5077,
  "Bug": 5078,
  "rust": 5079,
  "sidewalk": 5080,
  "cones": 5081,
  "girls": 5082,
  "supposed": 5083,
  "roots": 5084,
  "mixing": 5085,
  "Pr": 5086,
  "members": 5087,
  "Rab": 5088,
  "melting": 5089,
  "Zigzag": 5090,
  "For": 5091,
  "decorations": 5092,
  "Keep": 5093,
  "Dav": 5094,
  "Frank": 5095,
  "Friend": 5096,
  "Ex": 5097,
  "sid": 5098,
  "lily": 5099,
  "Really": 5100,
  "setting": 5101,
  "utter": 5102,
  "laid": 5103,
  "succeeded": 5104,
  "wiggle": 5105,
  "Ye": 5106,
  "Thanks": 5107,
  "studied": 5108,
  "strangers": 5109,
  "shock": 5110,
  "twigs": 5111,
  "ding": 5112,
  "theirs": 5113,
  "However": 5114,
  "fields": 5115,
  "!\",": 5116,
  "screams": 5117,
  "ordered": 5118,
  "stirring": 5119,
  "Rabbit": 5120,
  "moments": 5121,
  "Something": 5122,
  "threat": 5123,
  "alright": 5124,
  "stealing": 5125,
  "bravely": 5126,
  "David": 5127,
  "mister": 5128,
  "!'": 5129,
  "invest": 5130,
  "playtime": 5131,
  "esca": 5132,
  "scratched": 5133,
  "ripped": 5134,
  "burning": 5135,
  "investig": 5136,
  "Steve": 5137,
  "tucked": 5138,
  "waits": 5139,
  "bun": 5140,
  "text": 5141,
  "Rac": 5142,
  "inch": 5143,
  "ishes": 5144,
  "bridges": 5145,
  "otion": 5146,
  "officer": 5147,
  "Je": 5148,
  "matched": 5149,
  "settled": 5150,
  "emergency": 5151,
  "Lizzy": 5152,
  "achie": 5153,
  "lap": 5154,
  "texture": 5155,
  "keys": 5156,
  "Hope": 5157,
  "turning": 5158,
  "nails": 5159,
  "Unfortunately": 5160,
  "Aunt": 5161,
  "trembling": 5162,
  "nie": 5163,
  "izard": 5164,
  "decis": 5165,
  "sore": 5166,
  "muffins": 5167,
  "escaped": 5168,
  "piles": 5169,
  "investigate": 5170,
  "silence": 5171,
  "babies": 5172,
  "admir": 5173,
  "Star": 5174,
  "appreciate": 5175,
  "Ray": 5176,
  "pupp": 5177,
  "sisters": 5178,
  "Slowly": 5179,
  "area": 5180,
  "dads": 5181,
  "answers": 5182,
  "chewing": 5183,
  "Katie": 5184,
  "slapped": 5185,
  "importance": 5186,
  "wizard": 5187,
  "safety": 5188,
  "broom": 5189,
  "iggy": 5190,
  "Put": 5191,
  "owned": 5192,
  "Abig": 5193,
  "Moo": 5194,
  "sparkle": 5195,
  "beat": 5196,
  "touching": 5197,
  "soared": 5198,
  "Abigail": 5199,
  "sings": 5200,
  "antly": 5201,
  "dam": 5202,
  "chip": 5203,
  "amaze": 5204,
  "quack": 5205,
  "Those": 5206,
  "brushes": 5207,
  "Squ": 5208,
  "ms": 5209,
  "amazement": 5210,
  "twin": 5211,
  "hesit": 5212,
  "revealed": 5213,
  "Rachel": 5214,
  "soaked": 5215,
  "writ": 5216,
  "keeps": 5217,
  "Leave": 5218,
  "Mmm": 5219,
  "foods": 5220,
  "dinosaurs": 5221,
  "rides": 5222,
  "recorded": 5223,
  "spaceship": 5224,
  "tickle": 5225,
  "trips": 5226,
  "curled": 5227,
  "glowed": 5228,
  "rr": 5229,
  "vor": 5230,
  "beamed": 5231,
  "ached": 5232,
  "hated": 5233,
  "ppers": 5234,
  "Zoe": 5235,
  "shopping": 5236,
  "direct": 5237,
  "eats": 5238,
  "Joy": 5239,
  "anna": 5240,
  "Spl": 5241,
  "praised": 5242,
  "wooden": 5243,
  "bringing": 5244,
  "studying": 5245,
  "mittens": 5246,
  "thri": 5247,
  "shooting": 5248,
  "includ": 5249,
  "crawling": 5250,
  "dot": 5251,
  "ids": 5252,
  "marks": 5253,
  "ruler": 5254,
  "downstairs": 5255,
  "tastes": 5256,
  "sprinkles": 5257,
  "cuddled": 5258,
  "Hold": 5259,
  "Ma": 5260,
  "fut": 5261,
  "collecting": 5262,
  "ib": 5263,
  "future": 5264,
  "monsters": 5265,
  "measuring": 5266,
  "ef": 5267,
  "'.": 5268,
  "families": 5269,
  "challen": 5270,
  "ising": 5271,
  "irts": 5272,
  "Yummy": 5273,
  "approached": 5274,
  "fy": 5275,
  "ladybug": 5276,
  "Jess": 5277,
  "crunchy": 5278,
  "leader": 5279,
  "tails": 5280,
  "disturbed": 5281,
  "bleeding": 5282,
  "remembers": 5283,
  "boom": 5284,
  "nicer": 5285,
  "sneaky": 5286,
  "isten": 5287,
  "snowball": 5288,
  "scaring": 5289,
  "peel": 5290,
  "Behind": 5291,
  "Splash": 5292,
  "motion": 5293,
  "Jam": 5294,
  "firemen": 5295,
  "Sad": 5296,
  "grey": 5297,
  "neighborhood": 5298,
  "Listen": 5299,
  "vi": 5300,
  "apologized": 5301,
  "weighed": 5302,
  "gained": 5303,
  "tickets": 5304,
  "naps": 5305,
  "woof": 5306,
  "loose": 5307,
  "pride": 5308,
  "youth": 5309,
  "worker": 5310,
  "strings": 5311,
  "Pippa": 5312,
  "behaved": 5313,
  "recognized": 5314,
  "Vel": 5315,
  "sire": 5316,
  "fied": 5317,
  "siren": 5318,
  "En": 5319,
  "poking": 5320,
  "tricked": 5321,
  "wonders": 5322,
  "Velvet": 5323,
  "wanting": 5324,
  "crashed": 5325,
  "struck": 5326,
  "Quick": 5327,
  "seesaw": 5328,
  "prepared": 5329,
  "draws": 5330,
  "Nan": 5331,
  "scooped": 5332,
  "zooming": 5333,
  ".'": 5334,
  "Robby": 5335,
  "rubbing": 5336,
  "opinion": 5337,
  "By": 5338,
  "acting": 5339,
  "respons": 5340,
  "yelling": 5341,
  "grinned": 5342,
  "doggy": 5343,
  "poems": 5344,
  "zes": 5345,
  "happiest": 5346,
  "chef": 5347,
  "Achoo": 5348,
  "Get": 5349,
  "sneaked": 5350,
  "fer": 5351,
  "Quack": 5352,
  "bunnies": 5353,
  "anytime": 5354,
  "lier": 5355,
  "sides": 5356,
  "zen": 5357,
  "pedals": 5358,
  "knelt": 5359,
  "Jan": 5360,
  "decorated": 5361,
  "secrets": 5362,
  "ena": 5363,
  "horns": 5364,
  "agreement": 5365,
  "rescu": 5366,
  "During": 5367,
  "tallest": 5368,
  "De": 5369,
  "bank": 5370,
  "sen": 5371,
  "decides": 5372,
  "Time": 5373,
  "goodnight": 5374,
  "tugged": 5375,
  "Stitch": 5376,
  "Spr": 5377,
  "ided": 5378,
  "challenge": 5379,
  "osity": 5380,
  "slim": 5381,
  "Exc": 5382,
  "sparkling": 5383,
  "chirped": 5384,
  "Bree": 5385,
  "precious": 5386,
  "Bad": 5387,
  "pause": 5388,
  "Green": 5389,
  "Thom": 5390,
  "Friends": 5391,
  "Birdie": 5392,
  "uggling": 5393,
  "Being": 5394,
  "loaded": 5395,
  "repeated": 5396,
  "claps": 5397,
  "snowballs": 5398,
  "contain": 5399,
  "indy": 5400,
  "Ava": 5401,
  "eight": 5402,
  "ourselves": 5403,
  "rs": 5404,
  "giraffes": 5405,
  "Bouncy": 5406,
  "Sn": 5407,
  "Dare": 5408,
  "balancing": 5409,
  "united": 5410,
  "Gogo": 5411,
  "kindly": 5412,
  "frozen": 5413,
  "alien": 5414,
  "spending": 5415,
  "writes": 5416,
  "comp": 5417,
  "Po": 5418,
  "flavor": 5419,
  "Thomas": 5420,
  "hissed": 5421,
  "frosting": 5422,
  "Two": 5423,
  "buzzing": 5424,
  "struggled": 5425,
  "Mi": 5426,
  "rele": 5427,
  "admiring": 5428,
  "sweeties": 5429,
  "Water": 5430,
  "slimy": 5431,
  "Olly": 5432,
  "brushed": 5433,
  "bloomed": 5434,
  "polished": 5435,
  "comfy": 5436,
  "powers": 5437,
  "Mouse": 5438,
  "Mir": 5439,
  "rings": 5440,
  "loving": 5441,
  "Fish": 5442,
  "staying": 5443,
  "folding": 5444,
  "Zero": 5445,
  "Julie": 5446,
  "rocking": 5447,
  "honk": 5448,
  "pockets": 5449,
  "Cla": 5450,
  "thrilled": 5451,
  "beside": 5452,
  "Kids": 5453,
  "machines": 5454,
  "earlier": 5455,
  "yesterday": 5456,
  "seems": 5457,
  "Wis": 5458,
  "traveled": 5459,
  "spraying": 5460,
  "hugging": 5461,
  "Wisdom": 5462,
  "cracked": 5463,
  "ities": 5464,
  "sew": 5465,
  "opening": 5466,
  "radishes": 5467,
  "curiosity": 5468,
  "circus": 5469,
  "surrounded": 5470,
  "tim": 5471,
  "gaze": 5472,
  "demanded": 5473,
  "paintings": 5474,
  "removed": 5475,
  "Beth": 5476,
  "Spring": 5477,
  "crumb": 5478,
  "pebbles": 5479,
  "Day": 5480,
  "hardly": 5481,
  "zookeeper": 5482,
  "catches": 5483,
  "pots": 5484,
  "stripes": 5485,
  "Jamie": 5486,
  "splashes": 5487,
  "deser": 5488,
  "cub": 5489,
  "petted": 5490,
  "urry": 5491,
  "matching": 5492,
  "ric": 5493,
  "aster": 5494,
  "cin": 5495,
  "toss": 5496,
  "stare": 5497,
  "belly": 5498,
  "tles": 5499,
  "Lou": 5500,
  "Fl": 5501,
  "whatever": 5502,
  "apologize": 5503,
  "Everyday": 5504,
  "rocked": 5505,
  "stron": 5506,
  "comforted": 5507,
  "Abby": 5508,
  "decision": 5509,
  "ribbons": 5510,
  "sled": 5511,
  "chases": 5512,
  "struggling": 5513,
  "stored": 5514,
  "expected": 5515,
  "roads": 5516,
  "protected": 5517,
  "steep": 5518,
  "Nina": 5519,
  "neighbors": 5520,
  "lied": 5521,
  "loe": 5522,
  "smiley": 5523,
  "granted": 5524,
  "diving": 5525,
  "Mon": 5526,
  "beard": 5527,
  "purred": 5528,
  "heroes": 5529,
  "sadness": 5530,
  "organizing": 5531,
  "disco": 5532,
  "stro": 5533,
  "eagle": 5534,
  "dipped": 5535,
  "sunlight": 5536,
  "pastels": 5537,
  "safer": 5538,
  "Take": 5539,
  "argued": 5540,
  "goals": 5541,
  "discovery": 5542,
  "peered": 5543,
  "villag": 5544,
  "shirts": 5545,
  "Chloe": 5546,
  "dragons": 5547,
  "buildings": 5548,
  "buckets": 5549,
  "parties": 5550,
  "cuts": 5551,
  "wedding": 5552,
  "flutter": 5553,
  "polishing": 5554,
  "planets": 5555,
  "fas": 5556,
  "smar": 5557,
  "Ear": 5558,
  "released": 5559,
  "refu": 5560,
  "crabs": 5561,
  "Hippy": 5562,
  "Silly": 5563,
  "Josh": 5564,
  "sausages": 5565,
  "bottles": 5566,
  "wiggled": 5567,
  "vies": 5568,
  "ads": 5569,
  "teased": 5570,
  "ley": 5571,
  "arguing": 5572,
  "dragged": 5573,
  "roaring": 5574,
  "movies": 5575,
  "clearing": 5576,
  "gathering": 5577,
  "actu": 5578,
  "Run": 5579,
  "Kay": 5580,
  "joyed": 5581,
  "Hanna": 5582,
  "teaches": 5583,
  "spiders": 5584,
  "limes": 5585,
  "cough": 5586,
  "overjoyed": 5587,
  "actually": 5588,
  "sighs": 5589,
  "caut": 5590,
  "continue": 5591,
  "Prin": 5592,
  "soaring": 5593,
  "cuddle": 5594,
  "smallest": 5595,
  "drives": 5596,
  "sparkles": 5597,
  "grandmother": 5598,
  "situ": 5599,
  "cubes": 5600,
  "rol": 5601,
  "Flo": 5602,
  "proper": 5603,
  "Bop": 5604,
  "len": 5605,
  "pouring": 5606,
  "prov": 5607,
  "pretends": 5608,
  "fascin": 5609,
  "mane": 5610,
  "peppers": 5611,
  "Catty": 5612,
  "quarreling": 5613,
  "shivered": 5614,
  "Jump": 5615,
  "stretching": 5616,
  "dusty": 5617,
  "ippy": 5618,
  "wondering": 5619,
  "villagers": 5620,
  "Enjoy": 5621,
  "weeks": 5622,
  "weed": 5623,
  "wherever": 5624,
  "darker": 5625,
  "youn": 5626,
  "company": 5627,
  "onwards": 5628,
  "iggling": 5629,
  "Oli": 5630,
  "tiest": 5631,
  "tions": 5632,
  "prettiest": 5633,
  "laying": 5634,
  "realize": 5635,
  "penguins": 5636,
  "Lena": 5637,
  "control": 5638,
  "stom": 5639,
  "bedtime": 5640,
  "completed": 5641,
  "Earth": 5642,
  "\u201d.": 5643,
  "othing": 5644,
  "knights": 5645,
  "instruc": 5646,
  "flags": 5647,
  "dolph": 5648,
  "Chew": 5649,
  "actions": 5650,
  "shrug": 5651,
  "Love": 5652,
  "responsible": 5653,
  "playroom": 5654,
  "conf": 5655,
  "patience": 5656,
  "Anne": 5657,
  "learns": 5658,
  "gotten": 5659,
  "Squirrel": 5660,
  "inda": 5661,
  "Adam": 5662,
  "packing": 5663,
  "sobb": 5664,
  "kites": 5665,
  "Try": 5666,
  "die": 5667,
  "reply": 5668,
  "destination": 5669,
  "fault": 5670,
  "wires": 5671,
  "Uh": 5672,
  "wrist": 5673,
  "applauded": 5674,
  "Blink": 5675,
  "wins": 5676,
  "satis": 5677,
  "mountains": 5678,
  "scrubbed": 5679,
  "fears": 5680,
  "crept": 5681,
  "Mira": 5682,
  "rac": 5683,
  "wound": 5684,
  "third": 5685,
  "Brownie": 5686,
  "pencils": 5687,
  "Want": 5688,
  "aren": 5689,
  "baker": 5690,
  "sticking": 5691,
  "visiting": 5692,
  "peas": 5693,
  "ibb": 5694,
  "uct": 5695,
  "reminder": 5696,
  "awake": 5697,
  "ky": 5698,
  "Princess": 5699,
  "joking": 5700,
  "Hannah": 5701,
  "parked": 5702,
  "staring": 5703,
  "healed": 5704,
  "hitting": 5705,
  "Luck": 5706,
  "screaming": 5707,
  "begin": 5708,
  "acti": 5709,
  "icorn": 5710,
  "crumbs": 5711,
  "bie": 5712,
  "unicorn": 5713,
  "helmets": 5714,
  "Luckily": 5715,
  "shelves": 5716,
  "copy": 5717,
  "towels": 5718,
  "creation": 5719,
  "chips": 5720,
  "wasted": 5721,
  "masks": 5722,
  "Claire": 5723,
  "items": 5724,
  "nets": 5725,
  "chat": 5726,
  "agrees": 5727,
  "lollipops": 5728,
  "Hoot": 5729,
  "guns": 5730,
  "Dot": 5731,
  "firefight": 5732,
  "died": 5733,
  "glitter": 5734,
  "Jilly": 5735,
  "ilo": 5736,
  "ica": 5737,
  "Ah": 5738,
  "uddles": 5739,
  "nect": 5740,
  "arrive": 5741,
  "weren": 5742,
  "stole": 5743,
  "scales": 5744,
  "perched": 5745,
  "tune": 5746,
  "logs": 5747,
  "achieve": 5748,
  "practicing": 5749,
  "Ally": 5750,
  "whose": 5751,
  "Ball": 5752,
  "candies": 5753,
  "pumpkins": 5754,
  "instructions": 5755,
  "seven": 5756,
  "batteries": 5757,
  "snakes": 5758,
  "Foxy": 5759,
  "chirping": 5760,
  "wid": 5761,
  "Roar": 5762,
  "protecting": 5763,
  "exact": 5764,
  "El": 5765,
  "crowd": 5766,
  "Tree": 5767,
  "patiently": 5768,
  "activ": 5769,
  "shoulders": 5770,
  "videos": 5771,
  "promises": 5772,
  "blows": 5773,
  "yum": 5774,
  "faced": 5775,
  "airplane": 5776,
  "Susan": 5777,
  "cans": 5778,
  "ners": 5779,
  "jamas": 5780,
  "examined": 5781,
  "roses": 5782,
  "accompl": 5783,
  "Cra": 5784,
  "tasks": 5785,
  "Great": 5786,
  "project": 5787,
  "aws": 5788,
  "rubs": 5789,
  "Duck": 5790,
  "beads": 5791,
  "bowls": 5792,
  "Ja": 5793,
  "listens": 5794,
  "Jeff": 5795,
  "Cuddles": 5796,
  "requested": 5797,
  "bunch": 5798,
  "rolls": 5799,
  "dolphins": 5800,
  "dent": 5801,
  "ining": 5802,
  "guest": 5803,
  "scoop": 5804,
  "remote": 5805,
  "ops": 5806,
  "reaching": 5807,
  "improved": 5808,
  "dies": 5809,
  "stumble": 5810,
  "anta": 5811,
  "brand": 5812,
  "robb": 5813,
  "Dizzy": 5814,
  "Santa": 5815,
  "hunt": 5816,
  "cheering": 5817,
  "workers": 5818,
  "photos": 5819,
  "Fine": 5820,
  "filling": 5821,
  "leaning": 5822,
  "stern": 5823,
  "timer": 5824,
  "Luke": 5825,
  "replaced": 5826,
  "puppet": 5827,
  "adult": 5828,
  "neither": 5829,
  "Jessie": 5830,
  "passing": 5831,
  "eath": 5832,
  "misses": 5833,
  "tum": 5834,
  "curtains": 5835,
  "confli": 5836,
  "rainbows": 5837,
  "twirl": 5838,
  "Juli": 5839,
  "irm": 5840,
  "uctantly": 5841,
  "patted": 5842,
  "conflict": 5843,
  "pajamas": 5844,
  "outdoors": 5845,
  "complaining": 5846,
  "closes": 5847,
  "beneath": 5848,
  "drums": 5849,
  "hoo": 5850,
  "athy": 5851,
  "Trust": 5852,
  "fact": 5853,
  "sweat": 5854,
  "refuse": 5855,
  "angled": 5856,
  "balanced": 5857,
  "Nothing": 5858,
  "Fire": 5859,
  "Henny": 5860,
  "introduc": 5861,
  "...": 5862,
  "rescued": 5863,
  "neath": 5864,
  "quacked": 5865,
  "Days": 5866,
  "rip": 5867,
  "awesome": 5868,
  "trig": 5869,
  "effort": 5870,
  "cautious": 5871,
  "Linda": 5872,
  "guys": 5873,
  "observed": 5874,
  "ker": 5875,
  "pastries": 5876,
  "Oops": 5877,
  "doctors": 5878,
  "exactly": 5879,
  "Milo": 5880,
  "becoming": 5881,
  "rule": 5882,
  "policeman": 5883,
  "rockets": 5884,
  "Rover": 5885,
  "insist": 5886,
  "Whistle": 5887,
  "mies": 5888,
  "fairies": 5889,
  "Vroom": 5890,
  "blooming": 5891,
  "tractor": 5892,
  "farther": 5893,
  "teamwork": 5894,
  "included": 5895,
  "remembering": 5896,
  "curly": 5897,
  "Gina": 5898,
  "zie": 5899,
  "Jenna": 5900,
  "fascinated": 5901,
  "Only": 5902,
  "slam": 5903,
  "wobbled": 5904,
  "truly": 5905,
  "helpers": 5906,
  "Rain": 5907,
  "sights": 5908,
  "firm": 5909,
  "paddle": 5910,
  "Sha": 5911,
  "onge": 5912,
  "prayer": 5913,
  "caused": 5914,
  "recording": 5915,
  "Jacob": 5916,
  "loading": 5917,
  "Ske": 5918,
  "cost": 5919,
  "Skelly": 5920,
  "Jon": 5921,
  "thro": 5922,
  "starfish": 5923,
  "traded": 5924,
  "pointy": 5925,
  "supplies": 5926,
  "sponge": 5927,
  "inviting": 5928,
  "usually": 5929,
  "throat": 5930,
  "adding": 5931,
  "situation": 5932,
  "everyday": 5933,
  "neighbourhood": 5934,
  "dots": 5935,
  "steady": 5936,
  "prett": 5937,
  "ornaments": 5938,
  "bows": 5939,
  "minerals": 5940,
  "valued": 5941,
  "shaped": 5942,
  "bare": 5943,
  "reluctantly": 5944,
  "ledge": 5945,
  "seas": 5946,
  "stays": 5947,
  "tables": 5948,
  "prettier": 5949,
  "Dee": 5950,
  "desert": 5951,
  "snowmen": 5952,
  "Betsy": 5953,
  "Dara": 5954,
  "thorn": 5955,
  "anger": 5956,
  "Whee": 5957,
  "Lion": 5958,
  "faraway": 5959,
  "solut": 5960,
  "swooped": 5961,
  "strum": 5962,
  "forks": 5963,
  "Ash": 5964,
  "badge": 5965,
  "colored": 5966,
  "winked": 5967,
  "sneezing": 5968,
  "Twink": 5969,
  "insects": 5970,
  "Suzie": 5971,
  "pans": 5972,
  "confident": 5973,
  "sobbed": 5974,
  "growling": 5975,
  "noses": 5976,
  "itchy": 5977,
  "scarves": 5978,
  "yourselves": 5979,
  "homework": 5980,
  "superheroes": 5981,
  "Dodo": 5982,
  "ido": 5983,
  "smarter": 5984,
  "windy": 5985,
  "Ziggy": 5986,
  "librarian": 5987,
  "ora": 5988,
  "gems": 5989,
  "Mart": 5990,
  "Paws": 5991,
  "lett": 5992,
  "underneath": 5993,
  "jackets": 5994,
  "Bang": 5995,
  "kicks": 5996,
  "knowledge": 5997,
  "Wink": 5998,
  "Snap": 5999,
  "Skip": 6000,
  "untie": 6001,
  "Yeah": 6002,
  "Gu": 6003,
  "cot": 6004,
  "princesses": 6005,
  "master": 6006,
  "...\"": 6007,
  "vin": 6008,
  "Fido": 6009,
  "rusty": 6010,
  "reads": 6011,
  "squares": 6012,
  "giggling": 6013,
  "warnings": 6014,
  "ropes": 6015,
  "zzed": 6016,
  "younger": 6017,
  "swallow": 6018,
  "clowns": 6019,
  "Nana": 6020,
  "deal": 6021,
  "biting": 6022,
  "Sadly": 6023,
  "aut": 6024,
  "orted": 6025,
  "Fe": 6026,
  "nine": 6027,
  "Yesterday": 6028,
  "Twinkle": 6029,
  "Ew": 6030,
  "Pu": 6031,
  "pite": 6032,
  "seag": 6033,
  "iv": 6034,
  "seagull": 6035,
  "delivered": 6036,
  "paddled": 6037,
  "wears": 6038,
  "onions": 6039,
  "buzzed": 6040,
  "complained": 6041,
  "Cara": 6042,
  "bumpy": 6043,
  "rance": 6044,
  "Buggy": 6045,
  "piggy": 6046,
  "Jessica": 6047,
  "Cathy": 6048,
  "Jones": 6049,
  "Shh": 6050,
  "dived": 6051,
  "direction": 6052,
  "surface": 6053,
  "tangled": 6054,
  "startled": 6055,
  "froze": 6056,
  "vowed": 6057,
  "squeal": 6058,
  "napkins": 6059,
  "covers": 6060,
  "tickled": 6061,
  "Cindy": 6062,
  "ripe": 6063,
  "satisfied": 6064,
  "Near": 6065,
  "Ba": 6066,
  "itches": 6067,
  "yells": 6068,
  "cous": 6069,
  "swims": 6070,
  "freshed": 6071,
  "wow": 6072,
  "knocks": 6073,
  "refreshed": 6074,
  "signed": 6075,
  "Kayla": 6076,
  "Mine": 6077,
  "fits": 6078,
  "arrows": 6079,
  "marked": 6080,
  "guessing": 6081,
  "wipes": 6082,
  "speaking": 6083,
  "Tara": 6084,
  "ented": 6085,
  "lettuce": 6086,
  "seeker": 6087,
  "choices": 6088,
  "hides": 6089,
  "slower": 6090,
  "Julia": 6091,
  "introduced": 6092,
  "fab": 6093,
  "Oliver": 6094,
  "praying": 6095,
  "creating": 6096,
  "singer": 6097,
  "Mat": 6098,
  "Nice": 6099,
  "Fu": 6100,
  "behaving": 6101,
  "uggles": 6102,
  "ref": 6103,
  "joked": 6104,
  "toaster": 6105,
  "explorers": 6106,
  "rainy": 6107,
  "written": 6108,
  "Excuse": 6109,
  "bars": 6110,
  "discovering": 6111,
  "Rolly": 6112,
  "provided": 6113,
  "Grumpy": 6114,
  "mushrooms": 6115,
  "paying": 6116,
  "Mic": 6117,
  "knees": 6118,
  "hider": 6119,
  "ences": 6120,
  "wandering": 6121,
  "images": 6122,
  "stung": 6123,
  "Mikey": 6124,
  "ese": 6125,
  "magnets": 6126,
  "barely": 6127,
  "Matt": 6128,
  "Snuggles": 6129,
  "sequ": 6130,
  "Copper": 6131,
  "?\",": 6132,
  "leading": 6133,
  "restored": 6134,
  "chuck": 6135,
  "Laser": 6136,
  "ranger": 6137,
  "gears": 6138,
  "bravery": 6139,
  "competition": 6140,
  "wishing": 6141,
  "properly": 6142,
  "ventured": 6143,
  "dances": 6144,
  "salty": 6145,
  "however": 6146,
  "deserve": 6147,
  "matters": 6148,
  "darkness": 6149,
  "blocking": 6150,
  "cobwebs": 6151,
  "stem": 6152,
  "ruining": 6153,
  "chefs": 6154,
  "consequ": 6155,
  "vines": 6156,
  "scur": 6157,
  "hum": 6158,
  "lower": 6159,
  "fabric": 6160,
  "entire": 6161,
  "basement": 6162,
  "least": 6163,
  "performed": 6164,
  "Bark": 6165,
  "amb": 6166,
  "Jay": 6167,
  "bbie": 6168,
  "mints": 6169,
  "scratches": 6170,
  "heavier": 6171,
  "Pup": 6172,
  "losing": 6173,
  "avocados": 6174,
  "twirling": 6175,
  "Without": 6176,
  "suits": 6177,
  "haust": 6178,
  "sunflowers": 6179,
  "flake": 6180,
  "scurried": 6181,
  "rever": 6182,
  "wraps": 6183,
  "reflect": 6184,
  "swords": 6185,
  "silent": 6186,
  "solution": 6187,
  "jobs": 6188,
  "burst": 6189,
  "flames": 6190,
  "necklaces": 6191,
  "Bloom": 6192,
  "si": 6193,
  "rotting": 6194,
  "relief": 6195,
  "sewed": 6196,
  "snat": 6197,
  "Larry": 6198,
  "tricky": 6199,
  "lighter": 6200,
  "Sophia": 6201,
  "stain": 6202,
  "exhaust": 6203,
  "races": 6204,
  "consequences": 6205,
  "unpacked": 6206,
  "Doctor": 6207,
  "bumps": 6208,
  "pins": 6209,
  "partic": 6210,
  "tires": 6211,
  "thud": 6212,
  "accomplish": 6213,
  "Fro": 6214,
  "purr": 6215,
  "decorating": 6216,
  "backed": 6217,
  "isies": 6218,
  "rious": 6219,
  "Peanut": 6220,
  "lifting": 6221,
  "crackers": 6222,
  "Lizz": 6223,
  "ene": 6224,
  "noy": 6225,
  "Up": 6226,
  "dentist": 6227,
  "needles": 6228,
  "cautiously": 6229,
  "ties": 6230,
  "click": 6231,
  "annoy": 6232,
  "daisies": 6233,
  "triangles": 6234,
  "hesitated": 6235,
  "Lizzie": 6236,
  "iar": 6237,
  "growls": 6238,
  "grabbing": 6239,
  "ouch": 6240,
  "stomped": 6241,
  "Woo": 6242,
  "figured": 6243,
  "bodies": 6244,
  "mater": 6245,
  "buying": 6246,
  "rains": 6247,
  "familiar": 6248,
  "swans": 6249,
  "material": 6250,
  "grows": 6251,
  "sweets": 6252,
  "June": 6253,
  "Ant": 6254,
  "cheeks": 6255,
  "bly": 6256,
  "Sim": 6257,
  "interested": 6258,
  "suffering": 6259,
  "groups": 6260,
  "lungs": 6261,
  "owners": 6262,
  "bakery": 6263,
  "freed": 6264,
  "Ele": 6265,
  "ded": 6266,
  "chuckled": 6267,
  "repa": 6268,
  "swept": 6269,
  "source": 6270,
  "ters": 6271,
  "tapped": 6272,
  "?'": 6273,
  "exhausted": 6274,
  "yan": 6275,
  "twinkling": 6276,
  "nectar": 6277,
  "Frosty": 6278,
  "feast": 6279,
  "darling": 6280,
  "indro": 6281,
  "reason": 6282,
  "fuzzy": 6283,
  "worries": 6284,
  "repaired": 6285,
  "kings": 6286,
  "tunnels": 6287,
  "Very": 6288,
  "activities": 6289,
  "meals": 6290,
  "plent": 6291,
  "dip": 6292,
  "pecked": 6293,
  "Pam": 6294,
  "rist": 6295,
  "entrance": 6296,
  "raindro": 6297,
  "mailed": 6298,
  "completely": 6299,
  "particular": 6300,
  "changing": 6301,
  "Que": 6302,
  "nests": 6303,
  "waiter": 6304,
  "stool": 6305,
  "cuddly": 6306,
  "sense": 6307,
  "Birthday": 6308,
  "Moon": 6309,
  "peeking": 6310,
  "ks": 6311,
  "plenty": 6312,
  "forehead": 6313,
  "slammed": 6314,
  "players": 6315,
  "printing": 6316,
  "Bigg": 6317,
  "Rollie": 6318,
  "budge": 6319,
  "month": 6320,
  "Chris": 6321,
  "gle": 6322,
  "Nick": 6323,
  "Stell": 6324,
  "forgets": 6325,
  "rum": 6326,
  "scra": 6327,
  "Mel": 6328,
  "handful": 6329,
  "Stella": 6330,
  "genie": 6331,
  "Cu": 6332,
  "Other": 6333,
  "lon": 6334,
  "talks": 6335,
  "feeding": 6336,
  "passports": 6337,
  "films": 6338,
  "impossible": 6339,
  "baths": 6340,
  "wobble": 6341,
  "determination": 6342,
  "Christ": 6343,
  "designed": 6344,
  "Queen": 6345,
  "buses": 6346,
  "opp": 6347,
  "counts": 6348,
  "stolen": 6349,
  "Magic": 6350,
  "Sleep": 6351,
  "spikes": 6352,
  "fires": 6353,
  "spreading": 6354,
  "wiping": 6355,
  "steer": 6356,
  "lamb": 6357,
  "hops": 6358,
  "Hurry": 6359,
  "ranny": 6360,
  "blings": 6361,
  "honked": 6362,
  "squish": 6363,
  "chop": 6364,
  "Missy": 6365,
  "irl": 6366,
  "ply": 6367,
  "separated": 6368,
  "Abbie": 6369,
  "siblings": 6370,
  "Biggie": 6371,
  "thest": 6372,
  "fever": 6373,
  "Robbie": 6374,
  "sewing": 6375,
  "twinkle": 6376,
  "behavi": 6377,
  "iss": 6378,
  "Maya": 6379,
  "toed": 6380,
  "pose": 6381,
  "camping": 6382,
  "bi": 6383,
  "Eleph": 6384,
  "Lau": 6385,
  "immer": 6386,
  "liqu": 6387,
  "celebration": 6388,
  "serving": 6389,
  "squealed": 6390,
  "Rock": 6391,
  "Robo": 6392,
  "Robert": 6393,
  "Stre": 6394,
  "backward": 6395,
  "Lia": 6396,
  "snatched": 6397,
  "cash": 6398,
  "hog": 6399,
  "twice": 6400,
  "sway": 6401,
  "creams": 6402,
  "dollhouse": 6403,
  "shrinking": 6404,
  "celebrating": 6405,
  "Izzy": 6406,
  "moo": 6407,
  "shops": 6408,
  "Honey": 6409,
  "kittens": 6410,
  "plain": 6411,
  "hus": 6412,
  "mate": 6413,
  "spat": 6414,
  "touches": 6415,
  "pancakes": 6416,
  "Stretch": 6417,
  "avoid": 6418,
  "ingo": 6419,
  "Fuzzy": 6420,
  "Toot": 6421,
  "wrapping": 6422,
  "ul": 6423,
  "twisting": 6424,
  "peck": 6425,
  "rotten": 6426,
  "paths": 6427,
  "tram": 6428,
  "dropping": 6429,
  "seaweed": 6430,
  "calmed": 6431,
  "stroked": 6432,
  "cers": 6433,
  "Laura": 6434,
  "untied": 6435,
  "iles": 6436,
  "playhouse": 6437,
  "Which": 6438,
  "haw": 6439,
  "screws": 6440,
  "students": 6441,
  "puppies": 6442,
  "Farm": 6443,
  "astron": 6444,
  "somebody": 6445,
  "igning": 6446,
  "liquid": 6447,
  "loops": 6448,
  "bras": 6449,
  "shoo": 6450,
  "wakes": 6451,
  "thrown": 6452,
  "bracelets": 6453,
  "astronaut": 6454,
  "itched": 6455,
  "Christmas": 6456,
  "skunk": 6457,
  "planning": 6458,
  "aimed": 6459,
  "Rudy": 6460,
  "Sparky": 6461,
  "pennies": 6462,
  "ends": 6463,
  "lifts": 6464,
  "belts": 6465,
  "beginning": 6466,
  "cent": 6467,
  "chie": 6468,
  "dancers": 6469,
  "sparks": 6470,
  "firefly": 6471,
  "Elephant": 6472,
  "poster": 6473,
  "rewarded": 6474,
  "sale": 6475,
  "Isn": 6476,
  "endy": 6477,
  "lia": 6478,
  "tempt": 6479,
  "objects": 6480,
  "trampol": 6481,
  "Karen": 6482,
  "directions": 6483,
  "husband": 6484,
  "Ryan": 6485,
  "reflection": 6486,
  "clues": 6487,
  "rising": 6488,
  "leads": 6489,
  "increased": 6490,
  "blocked": 6491,
  "scor": 6492,
  "cousin": 6493,
  "forgetting": 6494,
  "gar": 6495,
  "trigued": 6496,
  "Open": 6497,
  "bits": 6498,
  "ading": 6499,
  "trampoline": 6500,
  "pouted": 6501,
  "storekeeper": 6502,
  "zebras": 6503,
  "Martha": 6504,
  "hedgehog": 6505,
  "--": 6506,
  "lings": 6507,
  "borrowed": 6508,
  "snowflake": 6509,
  "angle": 6510,
  "countryside": 6511,
  "dama": 6512,
  "mesmer": 6513,
  "damage": 6514,
  "vehicles": 6515,
  "instrum": 6516,
  "Emmy": 6517,
  "frowning": 6518,
  "Along": 6519,
  "itor": 6520,
  "presses": 6521,
  "ivity": 6522,
  "marker": 6523,
  "Mabel": 6524,
  "beyond": 6525,
  "ammy": 6526,
  "maker": 6527,
  "ount": 6528,
  "cert": 6529,
  "whispers": 6530,
  "slips": 6531,
  "forts": 6532,
  "Does": 6533,
  "warmer": 6534,
  "flapping": 6535,
  "tiptoed": 6536,
  "Farmer": 6537,
  "Granny": 6538,
  "regretted": 6539,
  "everybody": 6540,
  "glued": 6541,
  "yelp": 6542,
  "creations": 6543,
  "hearing": 6544,
  "colder": 6545,
  "Snowman": 6546,
  "smelling": 6547,
  "airy": 6548,
  "Beaky": 6549,
  "bells": 6550,
  "Ne": 6551,
  "tying": 6552,
  "Show": 6553,
  "streets": 6554,
  "Ron": 6555,
  "earn": 6556,
  "fins": 6557,
  "cushions": 6558,
  "Univer": 6559,
  "Tia": 6560,
  "farthest": 6561,
  "creativity": 6562,
  "Ribb": 6563,
  "os": 6564,
  "ortun": 6565,
  "Make": 6566,
  "strongest": 6567,
  "Crab": 6568,
  "Too": 6569,
  "talent": 6570,
  "spins": 6571,
  "dollars": 6572,
  "Ribbit": 6573,
  "Ana": 6574,
  "iam": 6575,
  "lending": 6576,
  "Never": 6577,
  "cashier": 6578,
  "including": 6579,
  "sank": 6580,
  "stopping": 6581,
  "puff": 6582,
  "raincoat": 6583,
  "sniffs": 6584,
  "Spir": 6585,
  "trembled": 6586,
  "health": 6587,
  "Win": 6588,
  "pon": 6589,
  "iti": 6590,
  "Simon": 6591,
  "indeed": 6592,
  "wobbly": 6593,
  "Spirit": 6594,
  "hael": 6595,
  "guests": 6596,
  "single": 6597,
  "recommended": 6598,
  "Say": 6599,
  "spells": 6600,
  "bbled": 6601,
  "surprising": 6602,
  "accomplishment": 6603,
  "Afterwards": 6604,
  "hopeful": 6605,
  "Barky": 6606,
  "tweet": 6607,
  "pered": 6608,
  "seasons": 6609,
  "plans": 6610,
  "drivers": 6611,
  "supported": 6612,
  "suitcase": 6613,
  "mance": 6614,
  "stands": 6615,
  "artist": 6616,
  "suffered": 6617,
  "performance": 6618,
  "gross": 6619,
  "slowed": 6620,
  "vanilla": 6621,
  "flavors": 6622,
  "Michael": 6623,
  "Kit": 6624,
  "Bones": 6625,
  "delivery": 6626,
  "forgiving": 6627,
  "labels": 6628,
  "raindrops": 6629,
  "fle": 6630,
  "racco": 6631,
  "ware": 6632,
  "coloured": 6633,
  "pours": 6634,
  "Holly": 6635,
  "Nobody": 6636,
  "ility": 6637,
  "turtles": 6638,
  "willing": 6639,
  "Mad": 6640,
  "guy": 6641,
  "drawn": 6642,
  "Guess": 6643,
  "Titi": 6644,
  "recipe": 6645,
  "pops": 6646,
  "geese": 6647,
  "Janie": 6648,
  "Patch": 6649,
  "wept": 6650,
  "hadow": 6651,
  "charac": 6652,
  "corners": 6653,
  "sailboat": 6654,
  "surfboard": 6655,
  "queens": 6656,
  "squeak": 6657,
  "Hor": 6658,
  "itude": 6659,
  "Turt": 6660,
  "nif": 6661,
  "imagining": 6662,
  "hallway": 6663,
  "seconds": 6664,
  "watering": 6665,
  "raging": 6666,
  "grip": 6667,
  "preparing": 6668,
  "Zee": 6669,
  "widened": 6670,
  "robber": 6671,
  "outfit": 6672,
  "grocer": 6673,
  "Share": 6674,
  "Mother": 6675,
  "talented": 6676,
  "minded": 6677,
  "sailors": 6678,
  "aside": 6679,
  "softer": 6680,
  "tipped": 6681,
  "sending": 6682,
  "knots": 6683,
  "Cow": 6684,
  "inst": 6685,
  "unsure": 6686,
  "zipping": 6687,
  "horiz": 6688,
  "treehouse": 6689,
  "Find": 6690,
  "echo": 6691,
  "notes": 6692,
  "Baa": 6693,
  "Momma": 6694,
  "achieved": 6695,
  "Poor": 6696,
  "horizon": 6697,
  "pleasure": 6698,
  "delivering": 6699,
  "blinking": 6700,
  "hotter": 6701,
  "pupils": 6702,
  "angels": 6703,
  "burrow": 6704,
  "curiously": 6705,
  "lle": 6706,
  "ives": 6707,
  "prove": 6708,
  "Fight": 6709,
  "Since": 6710,
  "rumble": 6711,
  "symbols": 6712,
  "pigeons": 6713,
  "figures": 6714,
  "tummies": 6715,
  "acle": 6716,
  "bandages": 6717,
  "Ral": 6718,
  "visitor": 6719,
  "Ar": 6720,
  "robots": 6721,
  "Zoey": 6722,
  "hour": 6723,
  "backwards": 6724,
  "tossed": 6725,
  "raccoon": 6726,
  "roars": 6727,
  "Ralph": 6728,
  "merma": 6729,
  "rather": 6730,
  "Toys": 6731,
  "atur": 6732,
  "Se": 6733,
  "Wise": 6734,
  "groceries": 6735,
  "Excited": 6736,
  "blown": 6737,
  "Wake": 6738,
  "date": 6739,
  "iding": 6740,
  "among": 6741,
  "Abi": 6742,
  "nu": 6743,
  "afterwards": 6744,
  "Jackie": 6745,
  "!\u201d.": 6746,
  "Wendy": 6747,
  "Wor": 6748,
  "sped": 6749,
  "ments": 6750,
  "glee": 6751,
  "overcome": 6752,
  "Rich": 6753,
  "Any": 6754,
  "shovels": 6755,
  "slices": 6756,
  "merry": 6757,
  "Fighting": 6758,
  "Lenny": 6759,
  "issue": 6760,
  "heading": 6761,
  "Marie": 6762,
  "disturbing": 6763,
  "firefighters": 6764,
  "reversed": 6765,
  "Des": 6766,
  "swallowed": 6767,
  "Willy": 6768,
  "flipped": 6769,
  "scored": 6770,
  "squeezing": 6771,
  "Bro": 6772,
  "Roo": 6773,
  "Am": 6774,
  "waking": 6775,
  "intrigued": 6776,
  "couraging": 6777,
  "Davey": 6778,
  "Ame": 6779,
  "center": 6780,
  "ades": 6781,
  "Tweetie": 6782,
  "hawk": 6783,
  "Yog": 6784,
  "item": 6785,
  "Ra": 6786,
  "dged": 6787,
  "encouraging": 6788,
  "Playing": 6789,
  "chosen": 6790,
  "Turtle": 6791,
  "University": 6792,
  "couple": 6793,
  "screwdriver": 6794,
  "designs": 6795,
  "rivers": 6796,
  "slipping": 6797,
  "Mix": 6798,
  "secure": 6799,
  "squishy": 6800,
  "gardener": 6801,
  "Puppy": 6802,
  "markers": 6803,
  "respond": 6804,
  "tigers": 6805,
  "jars": 6806,
  "frowns": 6807,
  "iley": 6808,
  "fluttered": 6809,
  "firefighter": 6810,
  "Jacky": 6811,
  "Shr": 6812,
  "sprinkled": 6813,
  "assur": 6814,
  "creamy": 6815,
  "sharks": 6816,
  "ignoring": 6817,
  "lent": 6818,
  "giggles": 6819,
  "lling": 6820,
  "tissue": 6821,
  "tighter": 6822,
  "firmly": 6823,
  "Judy": 6824,
  "ais": 6825,
  "shown": 6826,
  "crew": 6827,
  "ships": 6828,
  "thorns": 6829,
  "amed": 6830,
  "audi": 6831,
  "Chewy": 6832,
  "Kip": 6833,
  "Boys": 6834,
  "drawers": 6835,
  "til": 6836,
  "lies": 6837,
  "crossing": 6838,
  "daring": 6839,
  "performing": 6840,
  "audience": 6841,
  "Ali": 6842,
  "Todd": 6843,
  "cloudy": 6844,
  "pedaled": 6845,
  "ilder": 6846,
  "stroke": 6847,
  "mixture": 6848,
  "addie": 6849,
  "gracefully": 6850,
  "yielded": 6851,
  "haircuts": 6852,
  "ev": 6853,
  "respected": 6854,
  "ponies": 6855,
  "Maddie": 6856,
  "sim": 6857,
  "crowns": 6858,
  "todd": 6859,
  "ias": 6860,
  "hangers": 6861,
  "nervously": 6862,
  "express": 6863,
  "Yet": 6864,
  "pays": 6865,
  "Bally": 6866,
  "Dear": 6867,
  "wrink": 6868,
  "sports": 6869,
  "ory": 6870,
  "avy": 6871,
  "ddie": 6872,
  "tested": 6873,
  "Mina": 6874,
  "Soft": 6875,
  "obeyed": 6876,
  "Jojo": 6877,
  "Outside": 6878,
  "melons": 6879,
  "beehive": 6880,
  "drif": 6881,
  "surfing": 6882,
  "Alright": 6883,
  "neighbours": 6884,
  "Man": 6885,
  "sever": 6886,
  "wisely": 6887,
  "shady": 6888,
  "iona": 6889,
  "magician": 6890,
  "enthusias": 6891,
  "darlings": 6892,
  "Sparkle": 6893,
  "enthusiasm": 6894,
  "stitches": 6895,
  "Sadie": 6896,
  "sails": 6897,
  "foc": 6898,
  "Although": 6899,
  "thoughts": 6900,
  "flip": 6901,
  "rays": 6902,
  "bathing": 6903,
  "reminds": 6904,
  "Fiona": 6905,
  "temper": 6906,
  "rup": 6907,
  "lever": 6908,
  "Samant": 6909,
  "spits": 6910,
  "teams": 6911,
  "surroundings": 6912,
  "fleas": 6913,
  "Samantha": 6914,
  "ongrat": 6915,
  "fills": 6916,
  "lessons": 6917,
  "eted": 6918,
  "paintbrush": 6919,
  "Ange": 6920,
  "mermaid": 6921,
  "Mixy": 6922,
  "sill": 6923,
  "cleaner": 6924,
  "explo": 6925,
  "hoops": 6926,
  "panicked": 6927,
  "amount": 6928,
  "Start": 6929,
  "ann": 6930,
  "longest": 6931,
  "scooters": 6932,
  "elf": 6933,
  "beloved": 6934,
  "immering": 6935,
  "asing": 6936,
  "Everybody": 6937,
  "10": 6938,
  "rushing": 6939,
  "lves": 6940,
  "oni": 6941,
  "forgiven": 6942,
  "oysters": 6943,
  "tock": 6944,
  "fus": 6945,
  "solving": 6946,
  "certain": 6947,
  "magazines": 6948,
  "ita": 6949,
  "tasting": 6950,
  "Mint": 6951,
  "Herb": 6952,
  "repeating": 6953,
  "discussed": 6954,
  "nightmares": 6955,
  "sweetest": 6956,
  "wadd": 6957,
  "Yoga": 6958,
  "Eddie": 6959,
  "kill": 6960,
  "tubes": 6961,
  "nood": 6962,
  "understands": 6963,
  "spoonful": 6964,
  "sheets": 6965,
  "pad": 6966,
  "licking": 6967,
  "sweep": 6968,
  "Amelia": 6969,
  "manners": 6970,
  "sprang": 6971,
  "nur": 6972,
  "bully": 6973,
  "guide": 6974,
  "Choo": 6975,
  "Back": 6976,
  "compe": 6977,
  "onna": 6978,
  "tered": 6979,
  "breathed": 6980,
  "ilda": 6981,
  "bulbs": 6982,
  "wiggly": 6983,
  "Pop": 6984,
  "Fairy": 6985,
  "testing": 6986,
  "neare": 6987,
  "grassy": 6988,
  "spies": 6989,
  "Chess": 6990,
  "deed": 6991,
  "Unt": 6992,
  "footsteps": 6993,
  "weekend": 6994,
  "speeding": 6995,
  "More": 6996,
  "Micro": 6997,
  "Until": 6998,
  "Bess": 6999,
  "perate": 7000,
  "focused": 7001,
  "ounced": 7002,
  "?!\"": 7003,
  "imb": 7004,
  "camel": 7005,
  "braver": 7006,
  "mesmerized": 7007,
  "lan": 7008,
  "worn": 7009,
  "hesitant": 7010,
  "Smo": 7011,
  "joining": 7012,
  "Raz": 7013,
  "greeted": 7014,
  "polar": 7015,
  "changes": 7016,
  "Meg": 7017,
  "cutter": 7018,
  "Deal": 7019,
  "Despite": 7020,
  "evil": 7021,
  "materials": 7022,
  "Ruff": 7023,
  "dred": 7024,
  "Gary": 7025,
  "Mean": 7026,
  "bicycles": 7027,
  "Goodnight": 7028,
  "awn": 7029,
  "ongratul": 7030,
  "peacefully": 7031,
  "spice": 7032,
  "Judge": 7033,
  "Sof": 7034,
  "gonna": 7035,
  "cept": 7036,
  "terrified": 7037,
  "nuzz": 7038,
  "Ruth": 7039,
  "knives": 7040,
  "politely": 7041,
  "scarecrow": 7042,
  "spills": 7043,
  "ashed": 7044,
  "burying": 7045,
  "ppies": 7046,
  "asers": 7047,
  "healing": 7048,
  "scattering": 7049,
  "aeroplanes": 7050,
  "seals": 7051,
  "miles": 7052,
  "Razor": 7053,
  "amboo": 7054,
  "Shadow": 7055,
  "blast": 7056,
  "worrying": 7057,
  "Spin": 7058,
  "Navy": 7059,
  "gazing": 7060,
  "stacked": 7061,
  "ows": 7062,
  "sation": 7063,
  "puzzled": 7064,
  "Eat": 7065,
  "Ice": 7066,
  "loses": 7067,
  "Hug": 7068,
  "Mindy": 7069,
  "tar": 7070,
  "baskets": 7071,
  "travelled": 7072,
  "dump": 7073,
  "Arr": 7074,
  "antic": 7075,
  "donkey": 7076,
  "locks": 7077,
  "temperature": 7078,
  "formed": 7079,
  "soaking": 7080,
  "ipes": 7081,
  "dripping": 7082,
  "believing": 7083,
  "pinching": 7084,
  "reassur": 7085,
  "clue": 7086,
  "rats": 7087,
  "force": 7088,
  "Another": 7089,
  "sandy": 7090,
  "sisted": 7091,
  "Should": 7092,
  "covering": 7093,
  "oosh": 7094,
  "Meanwhile": 7095,
  "punishment": 7096,
  "crashing": 7097,
  "banged": 7098,
  "Stan": 7099,
  "humans": 7100,
  "Eliz": 7101,
  "hundred": 7102,
  "Climb": 7103,
  "Eliza": 7104,
  "Dina": 7105,
  "orrow": 7106,
  "swimmer": 7107,
  "recor": 7108,
  "relaxing": 7109,
  "snowflakes": 7110,
  "Maddy": 7111,
  "Use": 7112,
  "dressing": 7113,
  "Still": 7114,
  "resisted": 7115,
  "quarreled": 7116,
  "beeped": 7117,
  "een": 7118,
  "arran": 7119,
  "bage": 7120,
  "joins": 7121,
  "delayed": 7122,
  "backpacks": 7123,
  "ramp": 7124,
  "Prince": 7125,
  "Maisy": 7126,
  "toddler": 7127,
  "hil": 7128,
  "ipper": 7129,
  "correct": 7130,
  "Ria": 7131,
  "encouragement": 7132,
  "Sofia": 7133,
  "toward": 7134,
  "rows": 7135,
  "benches": 7136,
  "Shelly": 7137,
  "Blinky": 7138,
  "scraped": 7139,
  "purpose": 7140,
  "py": 7141,
  "'.\"": 7142,
  "Loop": 7143,
  "permitted": 7144,
  "Jonny": 7145,
  "bamboo": 7146,
  "potion": 7147,
  "twinkled": 7148,
  "Tig": 7149,
  "cheers": 7150,
  "freedom": 7151,
  "months": 7152,
  "abby": 7153,
  "languages": 7154,
  "Eva": 7155,
  "poppies": 7156,
  "orders": 7157,
  "risks": 7158,
  "noodles": 7159,
  "faded": 7160,
  "shmall": 7161,
  "wounds": 7162,
  "rier": 7163,
  "Bri": 7164,
  "burnt": 7165,
  "Flick": 7166,
  "Pick": 7167,
  "pea": 7168,
  "sniffing": 7169,
  "cells": 7170,
  "adults": 7171,
  "annoyed": 7172,
  "pand": 7173,
  "Ring": 7174,
  "cca": 7175,
  "handsome": 7176,
  "floats": 7177,
  "opinions": 7178,
  "Tomorrow": 7179,
  "ientist": 7180,
  "Bon": 7181,
  "flown": 7182,
  "nodding": 7183,
  "Gerry": 7184,
  "sou": 7185,
  "sneezes": 7186,
  "damaged": 7187,
  "La": 7188,
  "Tri": 7189,
  "ease": 7190,
  "blu": 7191,
  "lipstick": 7192,
  "drifted": 7193,
  "hiss": 7194,
  "within": 7195,
  "tearing": 7196,
  "height": 7197,
  "bothering": 7198,
  "Ricky": 7199,
  "pleaded": 7200,
  "treated": 7201,
  "slither": 7202,
  "instruments": 7203,
  "Close": 7204,
  "Zippy": 7205,
  "seller": 7206,
  "Cari": 7207,
  "scientist": 7208,
  "pound": 7209,
  "ition": 7210,
  "birdhouse": 7211,
  "handing": 7212,
  "Megan": 7213,
  "Dani": 7214,
  "files": 7215,
  "Frankie": 7216,
  "wasting": 7217,
  "Fly": 7218,
  "dreamt": 7219,
  "results": 7220,
  "Play": 7221,
  "oops": 7222,
  "brushing": 7223,
  "destroying": 7224,
  "flight": 7225,
  "explains": 7226,
  "ousy": 7227,
  "characters": 7228,
  "Pret": 7229,
  "sweaty": 7230,
  "behavior": 7231,
  "Muff": 7232,
  "Mousy": 7233,
  "Sc": 7234,
  "Whoever": 7235,
  "Nut": 7236,
  "onward": 7237,
  "talents": 7238,
  "Fishy": 7239,
  "Tw": 7240,
  "Tre": 7241,
  "swirl": 7242,
  "bravest": 7243,
  "Boom": 7244,
  "engines": 7245,
  "mosquitoes": 7246,
  "sternly": 7247,
  "puck": 7248,
  "builder": 7249,
  "postman": 7250,
  "mischie": 7251,
  "tuck": 7252,
  "minds": 7253,
  "scares": 7254,
  "manag": 7255,
  "apologised": 7256,
  "Shrink": 7257,
  "Ca": 7258,
  "bitten": 7259,
  "quie": 7260,
  "snuck": 7261,
  "grandparents": 7262,
  "Nurse": 7263,
  "switched": 7264,
  "reminding": 7265,
  "decisions": 7266,
  "tilted": 7267,
  "singers": 7268,
  "breathing": 7269,
  "peeled": 7270,
  "Katy": 7271,
  "squeaked": 7272,
  "scam": 7273,
  "displayed": 7274,
  "purrs": 7275,
  "shines": 7276,
  "Patty": 7277,
  "Curious": 7278,
  "smashed": 7279,
  "rustling": 7280,
  "shor": 7281,
  "neatly": 7282,
  "gap": 7283,
  "planting": 7284,
  "marshmall": 7285,
  "cracks": 7286,
  "business": 7287,
  "bellies": 7288,
  "yelped": 7289,
  "Louise": 7290,
  "failed": 7291,
  "coloring": 7292,
  "Nancy": 7293,
  "charge": 7294,
  "Min": 7295,
  "focus": 7296,
  "via": 7297,
  "nasty": 7298,
  "zooms": 7299,
  "Speed": 7300,
  "Rita": 7301,
  "Sweet": 7302,
  "combed": 7303,
  "despite": 7304,
  "squaw": 7305,
  "pandas": 7306,
  "spapers": 7307,
  "edges": 7308,
  "spy": 7309,
  "Muffin": 7310,
  "plug": 7311,
  "wider": 7312,
  "robbers": 7313,
  "curl": 7314,
  "tage": 7315,
  "doorway": 7316,
  "sweaters": 7317,
  "echoed": 7318,
  "Jax": 7319,
  "nib": 7320,
  "action": 7321,
  "conne": 7322,
  "Kelly": 7323,
  "cafe": 7324,
  "Bubba": 7325,
  "Er": 7326,
  "taped": 7327,
  "flaps": 7328,
  "Tell": 7329,
  "connected": 7330,
  "backs": 7331,
  "scolds": 7332,
  "magnif": 7333,
  "tops": 7334,
  "crawls": 7335,
  "bably": 7336,
  "gobbled": 7337,
  "rior": 7338,
  "warrior": 7339,
  "stetho": 7340,
  "newspapers": 7341,
  "gras": 7342,
  "probably": 7343,
  "shinier": 7344,
  "Wooly": 7345,
  "cond": 7346,
  "Butter": 7347,
  "several": 7348,
  "Con": 7349,
  "encounter": 7350,
  "goo": 7351,
  "plucked": 7352,
  "assm": 7353,
  "quieter": 7354,
  "gesture": 7355,
  "Phil": 7356,
  "Taking": 7357,
  "plot": 7358,
  "aint": 7359,
  "swap": 7360,
  "student": 7361,
  "Kevin": 7362,
  "cares": 7363,
  "waterfall": 7364,
  "gues": 7365,
  "swimsuit": 7366,
  "rescuing": 7367,
  "cottage": 7368,
  "snaps": 7369,
  "grandson": 7370,
  "Elle": 7371,
  "Ty": 7372,
  "simply": 7373,
  "whistles": 7374,
  "Sl": 7375,
  "doorbell": 7376,
  "astronauts": 7377,
  "shorter": 7378,
  "ssss": 7379,
  "accidents": 7380,
  "unpacking": 7381,
  "swo": 7382,
  "mood": 7383,
  "bothered": 7384,
  "ibi": 7385,
  "swollen": 7386,
  "Right": 7387,
  "belle": 7388,
  "phones": 7389,
  "lor": 7390,
  "stethoscope": 7391,
  "Sal": 7392,
  "causing": 7393,
  "trusting": 7394,
  "Sa": 7395,
  "stalk": 7396,
  "leapt": 7397,
  "dresser": 7398,
  "pills": 7399,
  "Elsa": 7400,
  "runner": 7401,
  "throughout": 7402,
  "flips": 7403,
  "Sir": 7404,
  "elbow": 7405,
  "joyful": 7406,
  "prayers": 7407,
  "goats": 7408,
  "beaver": 7409,
  "Arrr": 7410,
  "munch": 7411,
  "Sis": 7412,
  "Flop": 7413,
  "dears": 7414,
  "Ot": 7415,
  "waddled": 7416,
  "lowered": 7417,
  "Startled": 7418,
  "stepping": 7419,
  "rowed": 7420,
  "teachers": 7421,
  "Grow": 7422,
  "Ly": 7423,
  "cowboy": 7424,
  "Daniel": 7425,
  "Bumpy": 7426,
  "Bibi": 7427,
  "inches": 7428,
  "envelopes": 7429,
  "grandchild": 7430,
  "Biggy": 7431,
  "Vi": 7432,
  "explorer": 7433,
  "anticip": 7434,
  "Becky": 7435,
  "gasp": 7436,
  "knocking": 7437,
  "Zipper": 7438,
  "whim": 7439,
  "floors": 7440,
  "efforts": 7441,
  "ruff": 7442,
  "uniforms": 7443,
  "Vivi": 7444,
  "aware": 7445,
  "wenty": 7446,
  "footprints": 7447,
  "nearly": 7448,
  "llas": 7449,
  "except": 7450,
  "trot": 7451,
  "glitt": 7452,
  "appreciation": 7453,
  "Thunder": 7454,
  "necks": 7455,
  "checks": 7456,
  "Joan": 7457,
  "collap": 7458,
  "Seeing": 7459,
  "sets": 7460,
  "Pretty": 7461,
  "posit": 7462,
  "engers": 7463,
  "fluttering": 7464,
  "umbrellas": 7465,
  "stamped": 7466,
  "sandcastles": 7467,
  "statues": 7468,
  "Jason": 7469,
  "iscu": 7470,
  "shrank": 7471,
  "squir": 7472,
  "Care": 7473,
  "finishing": 7474,
  "prick": 7475,
  "tran": 7476,
  "adds": 7477,
  "dodged": 7478,
  "chocolates": 7479,
  "germs": 7480,
  "passengers": 7481,
  "hunters": 7482,
  "matey": 7483,
  "burns": 7484,
  "Jolly": 7485,
  "Roger": 7486,
  "aprons": 7487,
  "aisle": 7488,
  "Cro": 7489,
  "whoosh": 7490,
  "Sup": 7491,
  "Yawn": 7492,
  "plugged": 7493,
  "Mae": 7494,
  ".'\"": 7495,
  "weeds": 7496,
  "Sw": 7497,
  "novels": 7498,
  "meows": 7499,
  "address": 7500,
  "demanding": 7501,
  "sented": 7502,
  "Softy": 7503,
  "Bingo": 7504,
  "issa": 7505,
  "shall": 7506,
  "Chick": 7507,
  "scratching": 7508,
  "presented": 7509,
  "minding": 7510,
  "discussing": 7511,
  "nurses": 7512,
  "refresh": 7513,
  "Gray": 7514,
  "driveway": 7515,
  "killed": 7516,
  "Gus": 7517,
  "becomes": 7518,
  "attack": 7519,
  "laptop": 7520,
  "toolbox": 7521,
  "Truck": 7522,
  "Vicky": 7523,
  "ashes": 7524,
  "supplied": 7525,
  "lope": 7526,
  "closing": 7527,
  "bounces": 7528,
  "scampered": 7529,
  "sprays": 7530,
  "slapping": 7531,
  "Hmm": 7532,
  "cas": 7533,
  "friendships": 7534,
  "suggestion": 7535,
  "Snake": 7536,
  "ford": 7537,
  "cotton": 7538,
  "belongings": 7539,
  "twists": 7540,
  "springing": 7541,
  "invites": 7542,
  "anticipation": 7543,
  "vented": 7544,
  "snuggle": 7545,
  "forgives": 7546,
  "models": 7547,
  "Flutter": 7548,
  "humming": 7549,
  "ghosts": 7550,
  "buckled": 7551,
  "massages": 7552,
  "newfound": 7553,
  "responded": 7554,
  "Piggy": 7555,
  "stroll": 7556,
  "expecting": 7557,
  "aim": 7558,
  "cheated": 7559,
  "Jet": 7560,
  "lappy": 7561,
  "battle": 7562,
  "Dotty": 7563,
  "tricycle": 7564,
  "traveling": 7565,
  "Elsie": 7566,
  "although": 7567,
  "essa": 7568,
  "Zack": 7569,
  "grandfather": 7570,
  "Hallow": 7571,
  "haird": 7572,
  "mommies": 7573,
  "Freddie": 7574,
  "Missile": 7575,
  "Halloween": 7576,
  "carries": 7577,
  "Charlot": 7578,
  "invitations": 7579,
  "twenty": 7580,
  "Caro": 7581,
  "refreshing": 7582,
  "Lina": 7583,
  "Grand": 7584,
  "omb": 7585,
  "Wolf": 7586,
  "Tru": 7587,
  "ien": 7588,
  "final": 7589,
  "foxes": 7590,
  "Charlotte": 7591,
  "Light": 7592,
  "duckling": 7593,
  "laces": 7594,
  "Angel": 7595,
  "ats": 7596,
  "Terry": 7597,
  "marshmallows": 7598,
  "clicked": 7599,
  "convin": 7600,
  "designing": 7601,
  "Pig": 7602,
  "jets": 7603,
  "mugs": 7604,
  "Feli": 7605,
  "Twist": 7606,
  "coral": 7607,
  "picnics": 7608,
  "clip": 7609,
  "insp": 7610,
  "scoops": 7611,
  "Eric": 7612,
  "travels": 7613,
  "Quacky": 7614,
  "aliens": 7615,
  "tests": 7616,
  "William": 7617,
  "questioned": 7618,
  "Te": 7619,
  "strips": 7620,
  "oudest": 7621,
  "defe": 7622,
  "usty": 7623,
  "connect": 7624,
  "greet": 7625,
  "consid": 7626,
  "Brrr": 7627,
  "Cir": 7628,
  "Flappy": 7629,
  "fights": 7630,
  "osite": 7631,
  "opposite": 7632,
  "pant": 7633,
  "rout": 7634,
  "encountered": 7635,
  "raising": 7636,
  "cock": 7637,
  "Monkey": 7638,
  "Bun": 7639,
  "rely": 7640,
  "bless": 7641,
  "afford": 7642,
  "Tweety": 7643,
  "Amanda": 7644,
  "odd": 7645,
  "upside": 7646,
  "yawning": 7647,
  "Book": 7648,
  "defin": 7649,
  "freezing": 7650,
  "calmly": 7651,
  "flashed": 7652,
  "groan": 7653,
  "inter": 7654,
  "conver": 7655,
  "realizes": 7656,
  "Step": 7657,
  "Satur": 7658,
  "buddy": 7659,
  "cupcakes": 7660,
  "crystals": 7661,
  "Andre": 7662,
  "winners": 7663,
  "Freeze": 7664,
  "byes": 7665,
  "Nutty": 7666,
  "Swim": 7667,
  "',": 7668,
  "weapons": 7669,
  "sacks": 7670,
  "cheat": 7671,
  "custo": 7672,
  "serv": 7673,
  "packages": 7674,
  "coach": 7675,
  "goodbyes": 7676,
  "itely": 7677,
  "messes": 7678,
  "ching": 7679,
  "ening": 7680,
  "enem": 7681,
  "yumm": 7682,
  "enemies": 7683,
  "yummiest": 7684,
  "born": 7685,
  "chea": 7686,
  "returning": 7687,
  "Sil": 7688,
  "stomp": 7689,
  "admiration": 7690,
  "Jean": 7691,
  "App": 7692,
  "unable": 7693,
  "Floppy": 7694,
  "parted": 7695,
  "tment": 7696,
  "sadder": 7697,
  "cosy": 7698,
  "Joke": 7699,
  "brightest": 7700,
  "Match": 7701,
  "respon": 7702,
  "Life": 7703,
  "craft": 7704,
  "ugging": 7705,
  "diamonds": 7706,
  "response": 7707,
  "bride": 7708,
  "Janey": 7709,
  "Cook": 7710,
  "astic": 7711,
  "honking": 7712,
  "whoever": 7713,
  "opportun": 7714,
  "garbage": 7715,
  "Amber": 7716,
  "Yell": 7717,
  "ream": 7718,
  "sess": 7719,
  "caps": 7720,
  "prevented": 7721,
  "Rebe": 7722,
  "stretches": 7723,
  "whispering": 7724,
  "Saturday": 7725,
  "awful": 7726,
  "weighs": 7727,
  "Math": 7728,
  "Tammy": 7729,
  "awoke": 7730,
  "pout": 7731,
  "ya": 7732,
  "traps": 7733,
  "dragonfly": 7734,
  "journeys": 7735,
  "sincere": 7736,
  "Per": 7737,
  "stall": 7738,
  "Moppy": 7739,
  "Auntie": 7740,
  "spices": 7741,
  "reassured": 7742,
  "Brian": 7743,
  "argum": 7744,
  "poses": 7745,
  "examining": 7746,
  "beetles": 7747,
  "automobiles": 7748,
  "definitely": 7749,
  "Cic": 7750,
  "Gabby": 7751,
  "playdate": 7752,
  "stuffing": 7753,
  "visitors": 7754,
  "Cici": 7755,
  "Jumpy": 7756,
  "Pur": 7757,
  "washes": 7758,
  "erase": 7759,
  "Gra": 7760,
  "bomb": 7761,
  "wiser": 7762,
  "customer": 7763,
  "erk": 7764,
  "grily": 7765,
  "emma": 7766,
  "travelling": 7767,
  "bou": 7768,
  "honesty": 7769,
  "hairdress": 7770,
  "bouque": 7771,
  ",'": 7772,
  "Rat": 7773,
  "congratul": 7774,
  "decoration": 7775,
  "tumbled": 7776,
  "owns": 7777,
  "grum": 7778,
  "declar": 7779,
  "Sasha": 7780,
  "Tippy": 7781,
  "welcoming": 7782,
  "increasing": 7783,
  "offering": 7784,
  "Rebecca": 7785,
  "weal": 7786,
  "beanstalk": 7787,
  "Ashley": 7788,
  "Over": 7789,
  "type": 7790,
  "occas": 7791,
  "inspired": 7792,
  "Jelly": 7793,
  "loudest": 7794,
  "correctly": 7795,
  "Super": 7796,
  "Jas": 7797,
  "Prom": 7798,
  "flowing": 7799,
  "wrigg": 7800,
  "scrub": 7801,
  "Pine": 7802,
  "Helping": 7803,
  "whales": 7804,
  "campfire": 7805,
  "Im": 7806,
  "Birds": 7807,
  "Olivia": 7808,
  "declared": 7809,
  "Grac": 7810,
  "beaks": 7811,
  "Tyler": 7812,
  "thump": 7813,
  "custom": 7814,
  "athan": 7815,
  "cleared": 7816,
  "active": 7817,
  "Rufus": 7818,
  "cowboys": 7819,
  "Cloud": 7820,
  "nuzzled": 7821,
  "loss": 7822,
  "warmly": 7823,
  "prizes": 7824,
  "surrend": 7825,
  "rewards": 7826,
  "experien": 7827,
  "Gracie": 7828,
  "customers": 7829,
  "nch": 7830,
  "ots": 7831,
  "Animal": 7832,
  "leap": 7833,
  "comforting": 7834,
  "sirens": 7835,
  "Hopper": 7836,
  "fantastic": 7837,
  "Danger": 7838,
  "towns": 7839,
  "spoiling": 7840,
  "bends": 7841,
  "insisting": 7842,
  "recorder": 7843,
  "dollar": 7844,
  "trigger": 7845,
  "hairdresser": 7846,
  "pipes": 7847,
  "shares": 7848,
  "cleans": 7849,
  "storms": 7850,
  "supporting": 7851,
  "surrendered": 7852,
  "iri": 7853,
  "brake": 7854,
  "cular": 7855,
  "wrinkled": 7856,
  "chopped": 7857,
  "arranged": 7858,
  "moons": 7859,
  "scent": 7860,
  "troubles": 7861,
  "beaming": 7862,
  "Promise": 7863,
  "thanking": 7864,
  "snowy": 7865,
  "enjoyable": 7866,
  "scurry": 7867,
  "ooking": 7868,
  "environ": 7869,
  "streamers": 7870,
  "ana": 7871,
  "classm": 7872,
  "Wil": 7873,
  "wee": 7874,
  "shorts": 7875,
  "shooed": 7876,
  "environment": 7877,
  "bruises": 7878,
  "Nora": 7879,
  "grat": 7880,
  "nights": 7881,
  "nibb": 7882,
  "hisses": 7883,
  "uster": 7884,
  "steering": 7885,
  "Isa": 7886,
  "Ky": 7887,
  "Flora": 7888,
  "signing": 7889,
  "visits": 7890,
  "exercises": 7891,
  "Tiger": 7892,
  "Turn": 7893,
  "coug": 7894,
  "ooky": 7895,
  "dangers": 7896,
  "pilots": 7897,
  "cuddles": 7898,
  "Bert": 7899,
  "Tessa": 7900,
  "tin": 7901,
  "unfortunately": 7902,
  "squished": 7903,
  "peep": 7904,
  "distra": 7905,
  "Captain": 7906,
  "convinced": 7907,
  "lody": 7908,
  "applauding": 7909,
  "anny": 7910,
  "gratitude": 7911,
  "munk": 7912,
  "providing": 7913,
  "tickles": 7914,
  "badger": 7915,
  "earned": 7916,
  "Cally": 7917,
  "choosing": 7918,
  "responsib": 7919,
  "Berry": 7920,
  "Set": 7921,
  "Helen": 7922,
  "scram": 7923,
  "brains": 7924,
  "youngest": 7925,
  "activity": 7926,
  "nearest": 7927,
  "Gilly": 7928,
  "Spicy": 7929,
  "cope": 7930,
  "Boat": 7931,
  "exploded": 7932,
  "coughed": 7933,
  "ative": 7934,
  "hoy": 7935,
  "rewarding": 7936,
  "Com": 7937,
  "sunscreen": 7938,
  "wealth": 7939,
  "Pene": 7940,
  "Waff": 7941,
  "bond": 7942,
  "tapping": 7943,
  "baa": 7944,
  "rails": 7945,
  "Old": 7946,
  "ilities": 7947,
  "Peace": 7948,
  "annoying": 7949,
  "Microscope": 7950,
  "soapy": 7951,
  "Fre": 7952,
  "Gold": 7953,
  "appreciated": 7954,
  "tempted": 7955,
  "threads": 7956,
  "weighing": 7957,
  "emerged": 7958,
  "Ahoy": 7959,
  "heartbroken": 7960,
  "Catch": 7961,
  "laws": 7962,
  "ribbit": 7963,
  "congratulated": 7964,
  "Penelope": 7965,
  "Pegg": 7966,
  "crocodiles": 7967,
  "hooks": 7968,
  "attempt": 7969,
  "fet": 7970,
  "clerk": 7971,
  "bathed": 7972,
  "apolo": 7973,
  "Li": 7974,
  "range": 7975,
  "messed": 7976,
  "example": 7977,
  "hover": 7978,
  "blank": 7979,
  "ared": 7980,
  "caw": 7981,
  "guarding": 7982,
  "chipmunk": 7983,
  "Fortun": 7984,
  "Got": 7985,
  "Riri": 7986,
  "manager": 7987,
  "Buster": 7988,
  "bats": 7989,
  "Fortunately": 7990,
  "dee": 7991,
  "common": 7992,
  "beast": 7993,
  "erosity": 7994,
  "Felix": 7995,
  "experienced": 7996,
  "Fay": 7997,
  "tips": 7998,
  "Sand": 7999,
  "etah": 8000,
  "Andrew": 8001,
  "Barry": 8002,
  "erasers": 8003,
  "Squeak": 8004,
  "Yellow": 8005,
  "finishes": 8006,
  "Rub": 8007,
  "boards": 8008,
  "digs": 8009,
  "nibbled": 8010,
  "trotted": 8011,
  "Peggy": 8012,
  "kinder": 8013,
  "cheetah": 8014,
  "chews": 8015,
  "particularly": 8016,
  "target": 8017,
  "rips": 8018,
  "ketch": 8019,
  "faith": 8020,
  "forgiveness": 8021,
  "argument": 8022,
  "Candy": 8023,
  "Three": 8024,
  "bouquet": 8025,
  "observing": 8026,
  "fishes": 8027,
  "generosity": 8028,
  "Gill": 8029,
  "instantly": 8030,
  "cheaper": 8031,
  "cages": 8032,
  "Excitedly": 8033,
  "mischievous": 8034,
  "Puffy": 8035,
  "Zog": 8036,
  "dial": 8037,
  "foam": 8038,
  "stores": 8039,
  "meowing": 8040,
  "Lung": 8041,
  "Oxygen": 8042,
  "Won": 8043,
  "mered": 8044,
  "Matilda": 8045,
  "Circle": 8046,
  "Mila": 8047,
  "Pin": 8048,
  "abra": 8049,
  "Peep": 8050,
  "mattered": 8051,
  "passes": 8052,
  "teles": 8053,
  "Bobbie": 8054,
  "limp": 8055,
  "whir": 8056,
  "sleeps": 8057,
  "Sing": 8058,
  "breaths": 8059,
  "Har": 8060,
  "shopper": 8061,
  "mats": 8062,
  "gasps": 8063,
  "rumbling": 8064,
  "accomplished": 8065,
  "Otto": 8066,
  "Monster": 8067,
  "smartest": 8068,
  "scrambled": 8069,
  "telescope": 8070,
  "moat": 8071,
  "whined": 8072,
  "farmers": 8073,
  "fif": 8074,
  "forests": 8075,
  "syrup": 8076,
  "styles": 8077,
  "discoveries": 8078,
  "angrily": 8079,
  "vegg": 8080,
  "gardens": 8081,
  "otters": 8082,
  "masterpiece": 8083,
  "collapsed": 8084,
  "snapping": 8085,
  "experiences": 8086,
  "idey": 8087,
  "meaning": 8088,
  "affect": 8089,
  "medals": 8090,
  "lers": 8091,
  "types": 8092,
  "conqu": 8093,
  "imagin": 8094,
  "adabra": 8095,
  "hardest": 8096,
  "vests": 8097,
  "trans": 8098,
  "faint": 8099,
  "intent": 8100,
  "movements": 8101,
  "expression": 8102,
  "chilly": 8103,
  "bubbly": 8104,
  "scores": 8105,
  "Rainbow": 8106,
  "unfair": 8107,
  "webs": 8108,
  "Mus": 8109,
  "Race": 8110,
  "toothbrush": 8111,
  "extraordinary": 8112,
  "attitude": 8113,
  "behaviour": 8114,
  "acles": 8115,
  "sprout": 8116,
  "horri": 8117,
  "March": 8118,
  "Silver": 8119,
  "iscuit": 8120,
  "Cars": 8121,
  "bbling": 8122,
  "skirts": 8123,
  "Doll": 8124,
  "spears": 8125,
  "ketchup": 8126,
  "Bar": 8127,
  "sooner": 8128,
  "patches": 8129,
  "grasshopper": 8130,
  "chin": 8131,
  "Annabelle": 8132,
  "pokes": 8133,
  "Bonnie": 8134,
  "momma": 8135,
  "pleas": 8136,
  "afar": 8137,
  "erts": 8138,
  "Rosa": 8139,
  "Feel": 8140,
  "Melissa": 8141,
  "Brad": 8142,
  "dock": 8143,
  "shrunk": 8144,
  "marking": 8145,
  "thicker": 8146,
  "squeezes": 8147,
  "Vio": 8148,
  "chill": 8149,
  "iff": 8150,
  "court": 8151,
  "glittering": 8152,
  "slithered": 8153,
  "classmates": 8154,
  "Mam": 8155,
  "prickly": 8156,
  "consider": 8157,
  "Ac": 8158,
  "idy": 8159,
  "squin": 8160,
  "expert": 8161,
  "Mixie": 8162,
  "elect": 8163,
  "Spidey": 8164,
  "kneeling": 8165,
  "luckily": 8166,
  "Mole": 8167,
  "announced": 8168,
  "Tess": 8169,
  "deserved": 8170,
  "mony": 8171,
  "costs": 8172,
  "Fun": 8173,
  "jumper": 8174,
  "Riley": 8175,
  "wolves": 8176,
  "thieves": 8177,
  "zigzags": 8178,
  "acts": 8179,
  "concer": 8180,
  "Ed": 8181,
  "aret": 8182,
  "vast": 8183,
  "squeaky": 8184,
  "thumbs": 8185,
  "shh": 8186,
  "bluebird": 8187,
  "dia": 8188,
  "idence": 8189,
  "Inky": 8190,
  "cheating": 8191,
  "Park": 8192,
  "raking": 8193,
  "trading": 8194,
  "avi": 8195,
  "ability": 8196,
  "Chip": 8197,
  "explaining": 8198,
  "Paula": 8199,
  "aven": 8200,
  "Jose": 8201,
  "ounce": 8202,
  "tidied": 8203,
  "Pru": 8204,
  "lunchtime": 8205,
  "seeking": 8206,
  "visible": 8207,
  "knit": 8208,
  "Waffle": 8209,
  "spilling": 8210,
  "rin": 8211,
  "hatch": 8212,
  "cloths": 8213,
  "desserts": 8214,
  "peacock": 8215,
  "Wonder": 8216,
  "Abra": 8217,
  "admit": 8218,
  "beating": 8219,
  "messages": 8220,
  "zips": 8221,
  "windowsill": 8222,
  "Smoke": 8223,
  "actor": 8224,
  "Tooth": 8225,
  "Carla": 8226,
  "Apr": 8227,
  "snar": 8228,
  "winding": 8229,
  "culp": 8230,
  "teen": 8231,
  "leans": 8232,
  "April": 8233,
  "Val": 8234,
  "hissing": 8235,
  "shallow": 8236,
  "watermelon": 8237,
  "flashing": 8238,
  "pressing": 8239,
  "cocoon": 8240,
  "Steven": 8241,
  "burger": 8242,
  "discouraged": 8243,
  "compete": 8244,
  "Slinky": 8245,
  "positive": 8246,
  "Ze": 8247,
  "woodcutter": 8248,
  "dripped": 8249,
  "Books": 8250,
  "Ratty": 8251,
  "disagreeing": 8252,
  "glimmering": 8253,
  "tidying": 8254,
  "trusts": 8255,
  "kangaroos": 8256,
  "veggies": 8257,
  "Tip": 8258,
  "storing": 8259,
  "Woolly": 8260,
  "landing": 8261,
  "cops": 8262,
  "fade": 8263,
  "drift": 8264,
  "teapot": 8265,
  "Bru": 8266,
  "Sit": 8267,
  "Beef": 8268,
  "heels": 8269,
  "Drink": 8270,
  "apology": 8271,
  "ides": 8272,
  "Ce": 8273,
  "Glow": 8274,
  "Ravi": 8275,
  "worst": 8276,
  "sleds": 8277,
  "papa": 8278,
  "comets": 8279,
  "whel": 8280,
  "slee": 8281,
  "officers": 8282,
  "situations": 8283,
  "conversation": 8284,
  "ying": 8285,
  "keepers": 8286,
  "Lemon": 8287,
  "suns": 8288,
  "foreshadow": 8289,
  "Liza": 8290,
  "Drag": 8291,
  "\u201d,": 8292,
  "overwhel": 8293,
  "pizzas": 8294,
  "miller": 8295,
  "granddaughter": 8296,
  "structures": 8297,
  "scurrying": 8298,
  "hoot": 8299,
  "foggy": 8300,
  "Faye": 8301,
  "Mona": 8302,
  "rhino": 8303,
  "Quickly": 8304,
  "cubs": 8305,
  "Flopsy": 8306,
  "opportunity": 8307,
  "Tu": 8308,
  "snorted": 8309,
  "differences": 8310,
  "bino": 8311,
  "quacking": 8312,
  "Immediately": 8313,
  "Pink": 8314,
  "heaven": 8315,
  "approach": 8316,
  "gulp": 8317,
  "levers": 8318,
  "Whose": 8319,
  "pos": 8320,
  "acy": 8321,
  "cracker": 8322,
  "Animals": 8323,
  "Ever": 8324,
  "Orange": 8325,
  "Pot": 8326,
  "rent": 8327,
  "White": 8328,
  "drip": 8329,
  "cooperate": 8330,
  "seagulls": 8331,
  "possess": 8332,
  "Pl": 8333,
  "?\u201d.": 8334,
  "Cut": 8335,
  "Past": 8336,
  "Wha": 8337,
  "Coal": 8338,
  "puppets": 8339,
  "disappointment": 8340,
  "speaks": 8341,
  "sneaks": 8342,
  "Violet": 8343,
  "lowers": 8344,
  "binocular": 8345,
  "dodge": 8346,
  "surfed": 8347,
  "acing": 8348,
  "scowl": 8349,
  "answering": 8350,
  "Move": 8351,
  "amused": 8352,
  "als": 8353,
  "checking": 8354,
  "Par": 8355,
  "sipped": 8356,
  "robin": 8357,
  "sculp": 8358,
  "numbered": 8359,
  "Cammy": 8360,
  "unwrapped": 8361,
  "Bubu": 8362,
  "inj": 8363,
  "inger": 8364,
  "Heli": 8365,
  "pepperoni": 8366,
  "repeats": 8367,
  "applause": 8368,
  "tab": 8369,
  "keyhole": 8370,
  "checkout": 8371,
  "risky": 8372,
  "inchworm": 8373,
  "Again": 8374,
  "bud": 8375,
  "Cats": 8376,
  "striking": 8377,
  "Spid": 8378,
  "Robot": 8379,
  "paddling": 8380,
  "Liam": 8381,
  "local": 8382,
  "Jody": 8383,
  "artwork": 8384,
  "croaked": 8385,
  "attacked": 8386,
  "cadabra": 8387,
  "waters": 8388,
  "spooky": 8389,
  "Scissors": 8390,
  "Icy": 8391,
  "beautifully": 8392,
  "Stand": 8393,
  "Horsie": 8394,
  "groaned": 8395,
  "swimsuits": 8396,
  "guards": 8397,
  "risk": 8398,
  "Janet": 8399,
  "groom": 8400,
  "lim": 8401,
  "cidents": 8402,
  "Accidents": 8403,
  "iment": 8404,
  "Uni": 8405,
  "Fix": 8406,
  "Imag": 8407,
  "Looking": 8408,
  "lump": 8409,
  "exams": 8410,
  "facts": 8411,
  "wig": 8412,
  "Bea": 8413,
  "drying": 8414,
  "cheerfully": 8415,
  "shrugs": 8416,
  "Martin": 8417,
  "Mind": 8418,
  "Sug": 8419,
  "shyly": 8420,
  "shoots": 8421,
  "honks": 8422,
  "sobbing": 8423,
  "Bra": 8424,
  "Johny": 8425,
  "Sleepy": 8426,
  "Alf": 8427,
  "Oxy": 8428,
  "hangs": 8429,
  "healthier": 8430,
  "whimpered": 8431,
  "Triangle": 8432,
  "Fru": 8433,
  "snor": 8434,
  "caterpillars": 8435,
  "fries": 8436,
  "oken": 8437,
  "izzes": 8438,
  "magnifying": 8439,
  "squinted": 8440,
  "blamed": 8441,
  "Through": 8442,
  "fascinating": 8443,
  "ction": 8444,
  "Lightning": 8445,
  "Feeling": 8446,
  "Oink": 8447,
  "suck": 8448,
  "facing": 8449,
  "frustration": 8450,
  "sculpture": 8451,
  "Du": 8452,
  "Pen": 8453,
  "shimmering": 8454,
  "Raven": 8455,
  "ron": 8456,
  "snort": 8457,
  "Black": 8458,
  "stacks": 8459,
  "nibble": 8460,
  "Ber": 8461,
  "Girl": 8462,
  "ellie": 8463,
  "snip": 8464,
  "raked": 8465,
  "grumbled": 8466,
  "Could": 8467,
  "Number": 8468,
  "Things": 8469,
  "knobs": 8470,
  "Squee": 8471,
  "petting": 8472,
  "sprinkle": 8473,
  "enemy": 8474,
  "swaying": 8475,
  "sme": 8476,
  "details": 8477,
  "mysteries": 8478,
  "hunting": 8479,
  "popping": 8480,
  "Shark": 8481,
  "Sugar": 8482,
  "Gl": 8483,
  "goodies": 8484,
  "textures": 8485,
  "Lots": 8486,
  "flock": 8487,
  "hew": 8488,
  "tale": 8489,
  "Johnson": 8490,
  "othy": 8491,
  "smoo": 8492,
  "marve": 8493,
  "countries": 8494,
  "fans": 8495,
  "wildflowers": 8496,
  "crops": 8497,
  "Dogs": 8498,
  "tablet": 8499,
  "striches": 8500,
  "bowing": 8501,
  "bushy": 8502,
  "necess": 8503,
  "angrier": 8504,
  "drowned": 8505,
  "peeped": 8506,
  "binoculars": 8507,
  "tone": 8508,
  "maps": 8509,
  "stew": 8510,
  "quizzes": 8511,
  "scen": 8512,
  "Leah": 8513,
  "moonlight": 8514,
  "niece": 8515,
  "crowded": 8516,
  "Mamma": 8517,
  "Flap": 8518,
  "outfits": 8519,
  "scrun": 8520,
  "folds": 8521,
  "OO": 8522,
  "mindful": 8523,
  "weaker": 8524,
  "wrench": 8525,
  "endings": 8526,
  "owls": 8527,
  "Bless": 8528,
  "unless": 8529,
  "ths": 8530,
  "flashes": 8531,
  "Carly": 8532,
  "hesitation": 8533,
  "property": 8534,
  "Son": 8535,
  "boil": 8536,
  "carts": 8537,
  "imaginations": 8538,
  "getic": 8539,
  "venture": 8540,
  "glared": 8541,
  "writer": 8542,
  "Trucky": 8543,
  "haven": 8544,
  "rick": 8545,
  "unfamiliar": 8546,
  "ala": 8547,
  "rocky": 8548,
  "Reliable": 8549,
  "dirtier": 8550,
  "Crabby": 8551,
  "responsibility": 8552,
  "fond": 8553,
  "mers": 8554,
  "natur": 8555,
  "pouch": 8556,
  "pest": 8557,
  "interest": 8558,
  "desks": 8559,
  "Abracadabra": 8560,
  "Dragon": 8561,
  "ibly": 8562,
  "ki": 8563,
  "aston": 8564,
  "swapped": 8565,
  "microwave": 8566,
  "confidence": 8567,
  "ently": 8568,
  "whine": 8569,
  "Belle": 8570,
  "speaker": 8571,
  "Winter": 8572,
  "Imagine": 8573,
  "''": 8574,
  "enger": 8575,
  "ppings": 8576,
  "compan": 8577,
  "doorstep": 8578,
  "softened": 8579,
  "disappearing": 8580,
  "Hur": 8581,
  "shat": 8582,
  "palms": 8583,
  "quacks": 8584,
  "listener": 8585,
  "priv": 8586,
  "Cheese": 8587,
  "Cher": 8588,
  "pace": 8589,
  "blushed": 8590,
  "Summer": 8591,
  "mun": 8592,
  "mie": 8593,
  "ering": 8594,
  "noticing": 8595,
  "funn": 8596,
  "venir": 8597,
  "burgers": 8598,
  "Law": 8599,
  "disaster": 8600,
  "Flicker": 8601,
  "souvenir": 8602,
  "Sandra": 8603,
  "spaces": 8604,
  "mayor": 8605,
  "Coby": 8606,
  "Oscar": 8607,
  "erup": 8608,
  "scree": 8609,
  "Dis": 8610,
  "Hank": 8611,
  "Nate": 8612,
  "jing": 8613,
  "stirs": 8614,
  "timid": 8615,
  "overwhelmed": 8616,
  "Fa": 8617,
  "Ken": 8618,
  "otions": 8619,
  "Jennie": 8620,
  "desper": 8621,
  "tugging": 8622,
  "Joanna": 8623,
  "injured": 8624,
  "Mail": 8625,
  "cases": 8626,
  "untangle": 8627,
  "mailing": 8628,
  "flick": 8629,
  "faction": 8630,
  "concent": 8631,
  "satisfaction": 8632,
  "Settle": 8633,
  "fixer": 8634,
  "Greeny": 8635,
  "render": 8636,
  "habit": 8637,
  "Surrender": 8638,
  "woo": 8639,
  "prank": 8640,
  "flav": 8641,
  "Jasmine": 8642,
  "sal": 8643,
  "lyn": 8644,
  "Toy": 8645,
  "hooves": 8646,
  "bound": 8647,
  "clut": 8648,
  "Sunshine": 8649,
  "Kyle": 8650,
  "Wr": 8651,
  "icking": 8652,
  "skies": 8653,
  "instrument": 8654,
  "certainly": 8655,
  "Stanley": 8656,
  "Ooh": 8657,
  "creak": 8658,
  "warmed": 8659,
  "Ka": 8660,
  "lish": 8661,
  "adually": 8662,
  "Whale": 8663,
  "Mop": 8664,
  "rinse": 8665,
  "pecks": 8666,
  "clips": 8667,
  "iky": 8668,
  "stains": 8669,
  "wriggled": 8670,
  "shave": 8671,
  "anced": 8672,
  "dete": 8673,
  "capt": 8674,
  "swir": 8675,
  "bumping": 8676,
  "bending": 8677,
  "Belie": 8678,
  "exploration": 8679,
  "toise": 8680,
  "chatted": 8681,
  "Puff": 8682,
  "rods": 8683,
  "arrie": 8684,
  "necessary": 8685,
  "Ms": 8686,
  "endant": 8687,
  "tunes": 8688,
  "attaching": 8689,
  "fooled": 8690,
  "reversing": 8691,
  "concerned": 8692,
  "Avery": 8693,
  "Oc": 8694,
  "Was": 8695,
  "glows": 8696,
  "clearly": 8697,
  "Winky": 8698,
  "salon": 8699,
  "aling": 8700,
  "lava": 8701,
  "sandpit": 8702,
  "prod": 8703,
  "Push": 8704,
  "natural": 8705,
  "oray": 8706,
  "blon": 8707,
  "motorcycles": 8708,
  "fetched": 8709,
  "smelt": 8710,
  "Au": 8711,
  "troll": 8712,
  "sometime": 8713,
  "oldest": 8714,
  "fireflies": 8715,
  "cupcake": 8716,
  "kissing": 8717,
  "Working": 8718,
  "blonde": 8719,
  "surv": 8720,
  "snug": 8721,
  "challenges": 8722,
  "unlocking": 8723,
  "glo": 8724,
  "welve": 8725,
  "differently": 8726,
  "Patrick": 8727,
  "Ger": 8728,
  "Ginger": 8729,
  "riverbank": 8730,
  "Alan": 8731,
  "Shoo": 8732,
  "swirls": 8733,
  "Purple": 8734,
  "conquered": 8735,
  "Carrie": 8736,
  "Four": 8737,
  "hates": 8738,
  "Di": 8739,
  "Ug": 8740,
  "wiggling": 8741,
  "Lucas": 8742,
  "realise": 8743,
  "sends": 8744,
  "Robin": 8745,
  "shortcut": 8746,
  "disobey": 8747,
  "banging": 8748,
  "sensation": 8749,
  "Duke": 8750,
  "munched": 8751,
  "Ding": 8752,
  "fist": 8753,
  "toppings": 8754,
  "miracle": 8755,
  "vinegar": 8756,
  "hippos": 8757,
  "Rusty": 8758,
  "halves": 8759,
  "lest": 8760,
  "stings": 8761,
  "swayed": 8762,
  "brakes": 8763,
  "ostriches": 8764,
  "sus": 8765,
  "cluck": 8766,
  "Grump": 8767,
  "survive": 8768,
  "crushed": 8769,
  "otherwise": 8770,
  "bubbling": 8771,
  "crunch": 8772,
  "pleasant": 8773,
  "Cake": 8774,
  "fri": 8775,
  "erg": 8776,
  "rack": 8777,
  "brant": 8778,
  "tents": 8779,
  "Giant": 8780,
  "charm": 8781,
  "Josie": 8782,
  "Iron": 8783,
  "Kind": 8784,
  "lizards": 8785,
  "repairing": 8786,
  "Anytime": 8787,
  "Found": 8788,
  "rubbish": 8789,
  "stretchy": 8790,
  "aids": 8791,
  "lectures": 8792,
  "vibrant": 8793,
  "Ernie": 8794,
  "passenger": 8795,
  "Bruce": 8796,
  "pounced": 8797,
  "tortoise": 8798,
  "Starry": 8799,
  "Five": 8800,
  "Stu": 8801,
  "Tidy": 8802,
  "scene": 8803,
  "Sundays": 8804,
  "glided": 8805,
  "Eww": 8806,
  "mooed": 8807,
  "Pinchy": 8808,
  "desperately": 8809,
  "yuck": 8810,
  "maje": 8811,
  "bert": 8812,
  "calmer": 8813,
  "copied": 8814,
  "intently": 8815,
  "globe": 8816,
  "woken": 8817,
  "level": 8818,
  "joyfully": 8819,
  "cris": 8820,
  "rags": 8821,
  "coolest": 8822,
  "judges": 8823,
  "Believe": 8824,
  "Tears": 8825,
  "twelve": 8826,
  "ricity": 8827,
  "capes": 8828,
  "goodness": 8829,
  "hips": 8830,
  "Reddy": 8831,
  "successfully": 8832,
  "cousins": 8833,
  "astonished": 8834,
  "Dilly": 8835,
  "dumb": 8836,
  "uing": 8837,
  "invisible": 8838,
  "reunited": 8839,
  "los": 8840,
  "arrives": 8841,
  "Carrot": 8842,
  "gooey": 8843,
  "guesses": 8844,
  "Gemma": 8845,
  "stacking": 8846,
  "dou": 8847,
  "Socky": 8848,
  "computers": 8849,
  "chatting": 8850,
  "racer": 8851,
  "paste": 8852,
  "Marley": 8853,
  "concentr": 8854,
  "inspec": 8855,
  "reappeared": 8856,
  "parks": 8857,
  "desperate": 8858,
  "rider": 8859,
  "pounds": 8860,
  "companion": 8861,
  "CD": 8862,
  "Rever": 8863,
  "narrow": 8864,
  "invent": 8865,
  "luckiest": 8866,
  "Rara": 8867,
  "gall": 8868,
  "winds": 8869,
  "sells": 8870,
  "crickets": 8871,
  "stomachs": 8872,
  "gates": 8873,
  "soda": 8874,
  "disobeyed": 8875,
  "caution": 8876,
  "Broccoli": 8877,
  "awhile": 8878,
  "hoses": 8879,
  "ssy": 8880,
  "pearls": 8881,
  "nor": 8882,
  "loyalty": 8883,
  "Jonathan": 8884,
  "popsic": 8885,
  "Land": 8886,
  "tongues": 8887,
  "Shake": 8888,
  "Swimmy": 8889,
  "ouched": 8890,
  "fived": 8891,
  "Leaf": 8892,
  "Pebby": 8893,
  "communi": 8894,
  "Coffee": 8895,
  "Free": 8896,
  "Last": 8897,
  "rowing": 8898,
  "Carol": 8899,
  "ka": 8900,
  "surely": 8901,
  "Ahh": 8902,
  "Hat": 8903,
  "onest": 8904,
  "cated": 8905,
  "flu": 8906,
  "cherish": 8907,
  "occasion": 8908,
  "!\u2019": 8909,
  "Ami": 8910,
  "cuc": 8911,
  "ridge": 8912,
  "stun": 8913,
  "chicks": 8914,
  "guitars": 8915,
  "croak": 8916,
  "Colin": 8917,
  "Apple": 8918,
  "detective": 8919,
  "aboard": 8920,
  "format": 8921,
  "intelligence": 8922,
  "alligators": 8923,
  "separating": 8924,
  "ites": 8925,
  "creep": 8926,
  "udged": 8927,
  "Friendship": 8928,
  "Libby": 8929,
  "learner": 8930,
  "bble": 8931,
  "Crusty": 8932,
  "Hal": 8933,
  "dging": 8934,
  "ans": 8935,
  "whines": 8936,
  "spiky": 8937,
  "Learn": 8938,
  "revealing": 8939,
  "Graceful": 8940,
  "Dro": 8941,
  "solute": 8942,
  "tickling": 8943,
  "strokes": 8944,
  "Lay": 8945,
  "underwater": 8946,
  "crouched": 8947,
  "appearance": 8948,
  "blooms": 8949,
  "Spinny": 8950,
  "inny": 8951,
  "persistence": 8952,
  "!'.": 8953,
  "Breezy": 8954,
  "routine": 8955,
  "Reverse": 8956,
  "hatched": 8957,
  "urity": 8958,
  "quilt": 8959,
  "leaking": 8960,
  "guardian": 8961,
  "servant": 8962,
  "tant": 8963,
  "oma": 8964,
  "doves": 8965,
  "taps": 8966,
  "lighting": 8967,
  "Comet": 8968,
  "zookeepers": 8969,
  "Father": 8970,
  "blame": 8971,
  "squashes": 8972,
  "painful": 8973,
  "Sharp": 8974,
  "deeply": 8975,
  "Oper": 8976,
  "jugg": 8977,
  "Soar": 8978,
  "mold": 8979,
  "throne": 8980,
  "Allie": 8981,
  "ggles": 8982,
  "security": 8983,
  "Otherwise": 8984,
  "tempting": 8985,
  "Potato": 8986,
  "Spider": 8987,
  "shattered": 8988,
  "Crane": 8989,
  "Sta": 8990,
  "Ten": 8991,
  "cooks": 8992,
  "chopping": 8993,
  "peeks": 8994,
  "centre": 8995,
  "squirted": 8996,
  "electricity": 8997,
  "Gret": 8998,
  "Pizz": 8999,
  "ands": 9000,
  "reck": 9001,
  "realizing": 9002,
  "allowing": 9003,
  "Joseph": 9004,
  "exchange": 9005,
  "Eating": 9006,
  "Patient": 9007,
  "Panda": 9008,
  "sweetly": 9009,
  "Crocodile": 9010,
  "formation": 9011,
  "Tick": 9012,
  "thew": 9013,
  "furious": 9014,
  "Jennif": 9015,
  "buckles": 9016,
  "sweeter": 9017,
  "glittered": 9018,
  "rinsed": 9019,
  "Jennifer": 9020,
  "Brain": 9021,
  "Randy": 9022,
  "Square": 9023,
  "builders": 9024,
  "defeated": 9025,
  "Pizza": 9026,
  "ani": 9027,
  "anie": 9028,
  "melody": 9029,
  "goggles": 9030,
  "Bees": 9031,
  "melts": 9032,
  "Mister": 9033,
  "Didi": 9034,
  "energetic": 9035,
  "waded": 9036,
  "chooses": 9037,
  "sniffled": 9038,
  "complet": 9039,
  "competing": 9040,
  "tantrum": 9041,
  "Gor": 9042,
  "poo": 9043,
  "bolt": 9044,
  "Roxy": 9045,
  "container": 9046,
  "remy": 9047,
  "rebuild": 9048,
  "bold": 9049,
  "Jeremy": 9050,
  "hudd": 9051,
  "spar": 9052,
  "undone": 9053,
  "larger": 9054,
  "protection": 9055,
  "seriously": 9056,
  "Hops": 9057,
  "tossing": 9058,
  "attempts": 9059,
  "Kenny": 9060,
  "Pass": 9061,
  "Sy": 9062,
  "jack": 9063,
  "Soap": 9064,
  "cooed": 9065,
  "helicopters": 9066,
  "tours": 9067,
  "Kar": 9068,
  "dra": 9069,
  "aloud": 9070,
  "courageous": 9071,
  "hummed": 9072,
  "dedi": 9073,
  "solutely": 9074,
  "muster": 9075,
  "patients": 9076,
  "Clare": 9077,
  "deserves": 9078,
  "racers": 9079,
  "Music": 9080,
  "Hurricane": 9081,
  "marvel": 9082,
  "meets": 9083,
  "ippers": 9084,
  "Ned": 9085,
  "ico": 9086,
  "wrapper": 9087,
  "improving": 9088,
  "plat": 9089,
  "booth": 9090,
  "nicest": 9091,
  "whiskers": 9092,
  "Doug": 9093,
  "runo": 9094,
  "Hooray": 9095,
  "Bruno": 9096,
  "Nelly": 9097,
  "lull": 9098,
  "blades": 9099,
  "meadows": 9100,
  "Brother": 9101,
  "imaginary": 9102,
  "OP": 9103,
  "!'\"": 9104,
  "\"!": 9105,
  "strolled": 9106,
  "obst": 9107,
  "strated": 9108,
  "cruel": 9109,
  "pairs": 9110,
  "Drop": 9111,
  "Rad": 9112,
  "ping": 9113,
  "Thankfully": 9114,
  "peels": 9115,
  "ssssssss": 9116,
  "Oak": 9117,
  "Boy": 9118,
  "incredibly": 9119,
  "winks": 9120,
  "asy": 9121,
  "spare": 9122,
  "circl": 9123,
  "tanks": 9124,
  "Matthew": 9125,
  "New": 9126,
  "nearer": 9127,
  "army": 9128,
  "section": 9129,
  "messier": 9130,
  "lamps": 9131,
  "pedaling": 9132,
  "Stealing": 9133,
  "Horsy": 9134,
  "condition": 9135,
  "Cookies": 9136,
  "transformed": 9137,
  "Clay": 9138,
  "School": 9139,
  "inju": 9140,
  "fuss": 9141,
  "fail": 9142,
  "compar": 9143,
  "izing": 9144,
  "Down": 9145,
  "thir": 9146,
  "illas": 9147,
  "peak": 9148,
  "dryer": 9149,
  "munching": 9150,
  "horrible": 9151,
  "Stri": 9152,
  "stur": 9153,
  "treas": 9154,
  "overhead": 9155,
  "holidays": 9156,
  "lob": 9157,
  "boiling": 9158,
  "panicking": 9159,
  "dives": 9160,
  "puffed": 9161,
  "Gir": 9162,
  "poop": 9163,
  "drill": 9164,
  "Bi": 9165,
  "poles": 9166,
  "offers": 9167,
  "softest": 9168,
  "confus": 9169,
  "possib": 9170,
  "confusion": 9171,
  "Fizzy": 9172,
  "Skeleton": 9173,
  "allerg": 9174,
  "uncovered": 9175,
  "mustn": 9176,
  "marveled": 9177,
  "ower": 9178,
  "cooled": 9179,
  "Reading": 9180,
  "roller": 9181,
  "elders": 9182,
  "Long": 9183,
  "closure": 9184,
  "rotted": 9185,
  "current": 9186,
  "Club": 9187,
  "dips": 9188,
  "mustered": 9189,
  "ankle": 9190,
  "gress": 9191,
  "chains": 9192,
  "glanced": 9193,
  "gratefully": 9194,
  "Alarm": 9195,
  "coughing": 9196,
  "heights": 9197,
  "treasured": 9198,
  "Soup": 9199,
  "ooh": 9200,
  "parable": 9201,
  "coop": 9202,
  "'?\"": 9203,
  "Nature": 9204,
  "Ta": 9205,
  "Wal": 9206,
  "sinking": 9207,
  "enclosure": 9208,
  "shaky": 9209,
  "hairs": 9210,
  "heavily": 9211,
  "lush": 9212,
  "liness": 9213,
  "sleigh": 9214,
  "cupboards": 9215,
  "Giraffe": 9216,
  "Cell": 9217,
  "Hook": 9218,
  "Peek": 9219,
  "combs": 9220,
  "inseparable": 9221,
  "gallop": 9222,
  "Mild": 9223,
  "biscuit": 9224,
  "Ther": 9225,
  "smash": 9226,
  "oatmeal": 9227,
  "Cocoa": 9228,
  "Gw": 9229,
  "riddle": 9230,
  "dashed": 9231,
  "clubs": 9232,
  "Teach": 9233,
  "sax": 9234,
  "idi": 9235,
  "stantly": 9236,
  "Chil": 9237,
  "Van": 9238,
  "Minnie": 9239,
  "Dream": 9240,
  "Wind": 9241,
  "aa": 9242,
  "bobb": 9243,
  "conv": 9244,
  "praise": 9245,
  "ordering": 9246,
  "Fluff": 9247,
  "glittery": 9248,
  "Fore": 9249,
  "HE": 9250,
  "Ind": 9251,
  "Nicky": 9252,
  "zippers": 9253,
  "pail": 9254,
  "raincoats": 9255,
  "hundreds": 9256,
  "scenery": 9257,
  "allergic": 9258,
  "Rel": 9259,
  "vas": 9260,
  "juic": 9261,
  "Repe": 9262,
  "suggests": 9263,
  "lantern": 9264,
  "Cherry": 9265,
  "completing": 9266,
  "nations": 9267,
  "rises": 9268,
  "convince": 9269,
  "mushy": 9270,
  "floppy": 9271,
  "character": 9272,
  "Respec": 9273,
  "atest": 9274,
  "JoJo": 9275,
  "Bebe": 9276,
  "practised": 9277,
  "musicians": 9278,
  "recommendation": 9279,
  "Prune": 9280,
  "Ugly": 9281,
  "rash": 9282,
  "seated": 9283,
  "unity": 9284,
  "Inch": 9285,
  "Jodie": 9286,
  "charged": 9287,
  "skips": 9288,
  "Juice": 9289,
  "vastated": 9290,
  "Gas": 9291,
  "Nap": 9292,
  "slot": 9293,
  "canvas": 9294,
  "owning": 9295,
  "cooper": 9296,
  "borrowing": 9297,
  "Kai": 9298,
  "huddled": 9299,
  "Children": 9300,
  "Respect": 9301,
  "soothing": 9302,
  "devastated": 9303,
  "scal": 9304,
  "Mais": 9305,
  "Trees": 9306,
  "hovering": 9307,
  "lullaby": 9308,
  "Lady": 9309,
  "otch": 9310,
  "enjoys": 9311,
  "chili": 9312,
  "Rick": 9313,
  "agreeing": 9314,
  "Repeat": 9315,
  "Off": 9316,
  "Pear": 9317,
  "Worm": 9318,
  "sly": 9319,
  "Mumma": 9320,
  "disagreement": 9321,
  "interrup": 9322,
  "Cho": 9323,
  "Greg": 9324,
  "showers": 9325,
  "compromise": 9326,
  "Noah": 9327,
  "airplanes": 9328,
  "values": 9329,
  "temptation": 9330,
  "Aw": 9331,
  "Using": 9332,
  "royal": 9333,
  "absolutely": 9334,
  "uctor": 9335,
  "Choose": 9336,
  "chalks": 9337,
  "Joanne": 9338,
  "mest": 9339,
  "anten": 9340,
  "folders": 9341,
  "distracted": 9342,
  "Maisie": 9343,
  "Pir": 9344,
  "ages": 9345,
  "cords": 9346,
  "considerate": 9347,
  "Value": 9348,
  "reckless": 9349,
  "Cal": 9350,
  "recess": 9351,
  "headache": 9352,
  "mustaches": 9353,
  "smoking": 9354,
  "gorillas": 9355,
  "struction": 9356,
  "actors": 9357,
  "platform": 9358,
  "piled": 9359,
  "wax": 9360,
  "immered": 9361,
  "scotch": 9362,
  "townspeople": 9363,
  "Fran": 9364,
  "Vic": 9365,
  "lun": 9366,
  "plo": 9367,
  "Gwen": 9368,
  "lasers": 9369,
  "horror": 9370,
  "shields": 9371,
  "Dinner": 9372,
  "pantry": 9373,
  "aroma": 9374,
  "Timothy": 9375,
  "wanna": 9376,
  "ighty": 9377,
  "clam": 9378,
  "conductor": 9379,
  "sturdy": 9380,
  "Nibb": 9381,
  "Shall": 9382,
  "Magnet": 9383,
  "Tay": 9384,
  "War": 9385,
  "silk": 9386,
  "wil": 9387,
  "loads": 9388,
  "Feather": 9389,
  "soul": 9390,
  "communicate": 9391,
  "spades": 9392,
  "fences": 9393,
  "beeping": 9394,
  "disappears": 9395,
  "Eve": 9396,
  "Mac": 9397,
  "Rory": 9398,
  "Tuck": 9399,
  "pads": 9400,
  "ladybugs": 9401,
  "buys": 9402,
  "Dancing": 9403,
  "silently": 9404,
  "Carefully": 9405,
  "aback": 9406,
  "def": 9407,
  "Matty": 9408,
  "wobbles": 9409,
  "Jes": 9410,
  "rie": 9411,
  "blade": 9412,
  "hollow": 9413,
  "warmest": 9414,
  "science": 9415,
  "hamster": 9416,
  "motions": 9417,
  "ripp": 9418,
  "movement": 9419,
  "caves": 9420,
  "lifeguard": 9421,
  "embarrassing": 9422,
  "payoff": 9423,
  "blush": 9424,
  "magnific": 9425,
  "Cream": 9426,
  "Hide": 9427,
  "vit": 9428,
  "unwrap": 9429,
  "History": 9430,
  "earrings": 9431,
  "sleepover": 9432,
  "Deaf": 9433,
  "squawk": 9434,
  "Grab": 9435,
  "snoring": 9436,
  "Cleaning": 9437,
  "hare": 9438,
  "oky": 9439,
  "chatter": 9440,
  "Careful": 9441,
  "Nibbles": 9442,
  "Small": 9443,
  "lil": 9444,
  "aring": 9445,
  "cables": 9446,
  "aisles": 9447,
  "scowled": 9448,
  "Spoon": 9449,
  "huff": 9450,
  "plank": 9451,
  "flowed": 9452,
  "slight": 9453,
  "alongside": 9454,
  "Patches": 9455,
  "possibilities": 9456,
  "Cha": 9457,
  "antlers": 9458,
  "Zoomie": 9459,
  "scratchy": 9460,
  "Ronny": 9461,
  "Funny": 9462,
  "alie": 9463,
  "toot": 9464,
  "Heidi": 9465,
  "barrow": 9466,
  "chanted": 9467,
  "Tuesdays": 9468,
  "dedication": 9469,
  "Mighty": 9470,
  "roast": 9471,
  "Button": 9472,
  "lookout": 9473,
  "pres": 9474,
  "confidently": 9475,
  "dumped": 9476,
  "ift": 9477,
  "conut": 9478,
  "woodpeck": 9479,
  "Hot": 9480,
  "mur": 9481,
  "code": 9482,
  "handles": 9483,
  "Ban": 9484,
  "Bring": 9485,
  "oned": 9486,
  "flyer": 9487,
  "Though": 9488,
  "hurtful": 9489,
  "workshop": 9490,
  "wheelbarrow": 9491,
  "cherished": 9492,
  "Salt": 9493,
  "Freya": 9494,
  "Gia": 9495,
  "NG": 9496,
  "Offic": 9497,
  "keen": 9498,
  "coconut": 9499,
  "collars": 9500,
  "eyed": 9501,
  "Confused": 9502,
  "Clo": 9503,
  "alled": 9504,
  "harmony": 9505,
  "belief": 9506,
  "pistols": 9507,
  "raises": 9508,
  "carton": 9509,
  "greatest": 9510,
  "mesmerised": 9511,
  "squawked": 9512,
  "defeat": 9513,
  "Squeeze": 9514,
  "magnificent": 9515,
  "process": 9516,
  "Billie": 9517,
  ".\u2019": 9518,
  "Clean": 9519,
  "Seat": 9520,
  "harvest": 9521,
  "fris": 9522,
  "whether": 9523,
  "signal": 9524,
  "crosses": 9525,
  "Zoo": 9526,
  "stinky": 9527,
  "unkind": 9528,
  "whipped": 9529,
  "progress": 9530,
  "capture": 9531,
  "gulped": 9532,
  "limits": 9533,
  "swat": 9534,
  "ophone": 9535,
  "Hero": 9536,
  "magically": 9537,
  "droop": 9538,
  "mixes": 9539,
  "respecting": 9540,
  "thrill": 9541,
  "Claus": 9542,
  "Anything": 9543,
  "Sisi": 9544,
  "Jellyfish": 9545,
  "funniest": 9546,
  "suspic": 9547,
  "Bibo": 9548,
  "saxophone": 9549,
  "Officer": 9550,
  "deciding": 9551,
  "pollen": 9552,
  "guided": 9553,
  "cuddling": 9554,
  "Ask": 9555,
  "hoof": 9556,
  "Wee": 9557,
  "tentacles": 9558,
  "begs": 9559,
  "Lill": 9560,
  "bands": 9561,
  "shots": 9562,
  "glistening": 9563,
  "Box": 9564,
  "splitting": 9565,
  "yawns": 9566,
  "Den": 9567,
  "Res": 9568,
  "Sly": 9569,
  "Shell": 9570,
  "roo": 9571,
  "grump": 9572,
  "scri": 9573,
  "Sean": 9574,
  "circled": 9575,
  "Mu": 9576,
  "dong": 9577,
  "thed": 9578,
  "umed": 9579,
  "climber": 9580,
  "sline": 9581,
  "clothesline": 9582,
  "iana": 9583,
  "parrots": 9584,
  "sleeve": 9585,
  "Pastel": 9586,
  "woodpecker": 9587,
  "20": 9588,
  "dizz": 9589,
  "adv": 9590,
  "hint": 9591,
  "halfway": 9592,
  "lilies": 9593,
  "Sitting": 9594,
  "Brave": 9595,
  "Rani": 9596,
  "Twis": 9597,
  "rystal": 9598,
  "slur": 9599,
  "steered": 9600,
  "Whoa": 9601,
  "Dull": 9602,
  "RA": 9603,
  "nudged": 9604,
  "pled": 9605,
  "thur": 9606,
  "continuing": 9607,
  "Jimbo": 9608,
  "widely": 9609,
  "depths": 9610,
  "dustpan": 9611,
  "Shiver": 9612,
  "Arthur": 9613,
  "sitter": 9614,
  "runny": 9615,
  "tastiest": 9616,
  "achievement": 9617,
  "amongst": 9618,
  "sparrow": 9619,
  "Heel": 9620,
  "motors": 9621,
  "Thermometer": 9622,
  "'!\"": 9623,
  "calf": 9624,
  "experiment": 9625,
  "Deli": 9626,
  "Bessy": 9627,
  "site": 9628,
  "farms": 9629,
  "gladly": 9630,
  "trailer": 9631,
  "bendy": 9632,
  "bleeds": 9633,
  "12": 9634,
  "Years": 9635,
  "theat": 9636,
  "skate": 9637,
  "hideout": 9638,
  "bathrobes": 9639,
  "Flash": 9640,
  "Caroline": 9641,
  "lossom": 9642,
  "Faith": 9643,
  "Dora": 9644,
  "Top": 9645,
  "THE": 9646,
  "till": 9647,
  "dodging": 9648,
  "Roy": 9649,
  "frightening": 9650,
  "Congratul": 9651,
  "trunks": 9652,
  "ticking": 9653,
  "boos": 9654,
  "warns": 9655,
  "Guard": 9656,
  "Butterfly": 9657,
  "Congratulations": 9658,
  "Afri": 9659,
  "Cor": 9660,
  "indoors": 9661,
  "kest": 9662,
  "pancake": 9663,
  "Melt": 9664,
  "floaty": 9665,
  "compared": 9666,
  "leng": 9667,
  "setup": 9668,
  "giants": 9669,
  "Marg": 9670,
  "entering": 9671,
  "snarled": 9672,
  "frisbee": 9673,
  "Da": 9674,
  "Yield": 9675,
  "cran": 9676,
  "inno": 9677,
  "daily": 9678,
  "Stir": 9679,
  "avoided": 9680,
  "spirits": 9681,
  "introducing": 9682,
  "Mick": 9683,
  "Willie": 9684,
  "supplying": 9685,
  "solutions": 9686,
  "explode": 9687,
  "Singing": 9688,
  "unzip": 9689,
  "dining": 9690,
  "hopscotch": 9691,
  "proved": 9692,
  "Tube": 9693,
  "Layla": 9694,
  "restoring": 9695,
  "aming": 9696,
  "purring": 9697,
  "hammers": 9698,
  "enthusiastically": 9699,
  "wiggles": 9700,
  "crafts": 9701,
  "limped": 9702,
  "Half": 9703,
  "Amen": 9704,
  "Nor": 9705,
  "preschool": 9706,
  "complim": 9707,
  "contained": 9708,
  "suspicious": 9709,
  "Twisty": 9710,
  "Rumble": 9711,
  "escap": 9712,
  "crum": 9713,
  "mates": 9714,
  "islands": 9715,
  "leopards": 9716,
  "ulous": 9717,
  "Taylor": 9718,
  "theatre": 9719,
  "Plan": 9720,
  "Vo": 9721,
  "wicked": 9722,
  "esy": 9723,
  "howl": 9724,
  "wetter": 9725,
  "Chuck": 9726,
  "Willow": 9727,
  "Fanny": 9728,
  "birth": 9729,
  "jigg": 9730,
  "god": 9731,
  "access": 9732,
  "Johnnie": 9733,
  "scribb": 9734,
  "Sale": 9735,
  "Gertie": 9736,
  "Pearl": 9737,
  "oink": 9738,
  "poons": 9739,
  "flippers": 9740,
  "stained": 9741,
  "Tra": 9742,
  "jaws": 9743,
  "slime": 9744,
  "Hipp": 9745,
  "lasted": 9746,
  "obediently": 9747,
  "Shine": 9748,
  "majestic": 9749,
  "Margaret": 9750,
  "nanny": 9751,
  "aries": 9752,
  "gradually": 9753,
  "auntie": 9754,
  "calming": 9755,
  "rustle": 9756,
  "Dusty": 9757,
  "bundle": 9758,
  "Work": 9759,
  "Clap": 9760,
  "dries": 9761,
  "ens": 9762,
  "villain": 9763,
  "Cozy": 9764,
  "curve": 9765,
  "threatened": 9766,
  "Lydia": 9767,
  "scaly": 9768,
  "Food": 9769,
  "neighed": 9770,
  "blur": 9771,
  "Think": 9772,
  "colate": 9773,
  "Bean": 9774,
  "twirls": 9775,
  "Alfie": 9776,
  "Chocolate": 9777,
  "vitam": 9778,
  "rooster": 9779,
  "plus": 9780,
  "urging": 9781,
  "aband": 9782,
  "repairman": 9783,
  "Flame": 9784,
  "Cel": 9785,
  "Tap": 9786,
  "grain": 9787,
  "iring": 9788,
  "birdie": 9789,
  "tingling": 9790,
  "tucks": 9791,
  "panting": 9792,
  "Kindness": 9793,
  "Greta": 9794,
  "Spray": 9795,
  "ami": 9796,
  "ada": 9797,
  "smoky": 9798,
  "shame": 9799,
  "Instantly": 9800,
  "hunger": 9801,
  "fourth": 9802,
  "recipes": 9803,
  "exercising": 9804,
  "escaping": 9805,
  "Gen": 9806,
  "Milk": 9807,
  "Swan": 9808,
  "chirps": 9809,
  "challenged": 9810,
  "Cool": 9811,
  "ylan": 9812,
  "hey": 9813,
  "twitched": 9814,
  "notebooks": 9815,
  "Susy": 9816,
  "rectangle": 9817,
  "Climbing": 9818,
  "Opera": 9819,
  "Fier": 9820,
  "ality": 9821,
  "serves": 9822,
  "frames": 9823,
  "missiles": 9824,
  "poisonous": 9825,
  "pecking": 9826,
  "Need": 9827,
  "stroller": 9828,
  "Frustrated": 9829,
  "smoother": 9830,
  "Brush": 9831,
  "Call": 9832,
  "Caw": 9833,
  "blob": 9834,
  "mend": 9835,
  "anga": 9836,
  "Popcorn": 9837,
  "dodges": 9838,
  "?!": 9839,
  "Kelse": 9840,
  "Kanga": 9841,
  "drey": 9842,
  "trim": 9843,
  "Audrey": 9844,
  "Kelsey": 9845,
  "Dylan": 9846,
  "Flexible": 9847,
  "Sail": 9848,
  "inct": 9849,
  "prof": 9850,
  "leaped": 9851,
  "lightly": 9852,
  "disgu": 9853,
  "possessions": 9854,
  "Hairy": 9855,
  "Oat": 9856,
  "Scar": 9857,
  "scut": 9858,
  "invol": 9859,
  "lee": 9860,
  "hoe": 9861,
  "cheesy": 9862,
  "Rosy": 9863,
  "Albert": 9864,
  "cellent": 9865,
  "notices": 9866,
  "kneels": 9867,
  "tiptoes": 9868,
  "flooded": 9869,
  "Africa": 9870,
  "Kara": 9871,
  "smoothly": 9872,
  "crispy": 9873,
  "Goose": 9874,
  "Pi": 9875,
  "Pas": 9876,
  "plum": 9877,
  "Doing": 9878,
  "million": 9879,
  "flavour": 9880,
  "juggle": 9881,
  "Count": 9882,
  "Ric": 9883,
  "Worry": 9884,
  "device": 9885,
  "Ama": 9886,
  "ential": 9887,
  "sphere": 9888,
  "babysitter": 9889,
  "protects": 9890,
  "Horse": 9891,
  "records": 9892,
  "plopped": 9893,
  "Fit": 9894,
  "Gail": 9895,
  "Str": 9896,
  "removing": 9897,
  "bead": 9898,
  "Sock": 9899,
  "brightened": 9900,
  "bella": 9901,
  "chewy": 9902,
  "bullet": 9903,
  "flashlights": 9904,
  "dusted": 9905,
  "Isla": 9906,
  "strikes": 9907,
  "pounding": 9908,
  "route": 9909,
  "Kathy": 9910,
  "Pep": 9911,
  "mitt": 9912,
  "prison": 9913,
  "Angie": 9914,
  "thunderstorm": 9915,
  "stares": 9916,
  "arrange": 9917,
  "tend": 9918,
  "yay": 9919,
  "reappear": 9920,
  "mischief": 9921,
  "stomping": 9922,
  "Isabella": 9923,
  "deck": 9924,
  "snore": 9925,
  "contented": 9926,
  "Crystal": 9927,
  "Ign": 9928,
  "Throw": 9929,
  "nightstand": 9930,
  "organised": 9931,
  "priest": 9932,
  "turkeys": 9933,
  "bruise": 9934,
  "Jetty": 9935,
  "thirty": 9936,
  "cig": 9937,
  "oars": 9938,
  "ics": 9939,
  "gruff": 9940,
  "braid": 9941,
  "seahorse": 9942,
  "persu": 9943,
  "performers": 9944,
  "refusing": 9945,
  "Cass": 9946,
  "Much": 9947,
  "atop": 9948,
  "rais": 9949,
  "eyeshadow": 9950,
  "displaying": 9951,
  "quicker": 9952,
  "wagons": 9953,
  "Chom": 9954,
  "Poke": 9955,
  "Na": 9956,
  "dled": 9957,
  "arrested": 9958,
  "stiff": 9959,
  "rightful": 9960,
  "Leopar": 9961,
  "charity": 9962,
  "raindrop": 9963,
  "Bernie": 9964,
  "disguise": 9965,
  "AB": 9966,
  "SH": 9967,
  "bins": 9968,
  "loser": 9969,
  "flam": 9970,
  "shrimps": 9971,
  "Alison": 9972,
  "studies": 9973,
  "Bailey": 9974,
  "fluff": 9975,
  "Charles": 9976,
  "occasions": 9977,
  "juiciest": 9978,
  "slightly": 9979,
  "Neither": 9980,
  "lur": 9981,
  "mound": 9982,
  "ino": 9983,
  "beth": 9984,
  "ppa": 9985,
  "boiled": 9986,
  "forced": 9987,
  "umn": 9988,
  "launch": 9989,
  "dying": 9990,
  "tripping": 9991,
  "Surprised": 9992,
  "uttered": 9993,
  "fifty": 9994,
  "scrunched": 9995,
  "length": 9996,
  "Furry": 9997,
  "hike": 9998,
  "dozed": 9999
}